TRT-100700-MinMaxCalibration
encoder_cont: 3f7c94ce
decoder_cont: 3f7c94ce
target_scale: 3f7c94ce
x_cont: 3f7c94ce
ONNXTRT_Broadcast_5959_output: 3b82a084
onnx::Concat_4658: 3d3a1e38
q.27: 3cdbc9b2
onnx::Unsqueeze_22: 3e12f72a
onnx::Concat_4654: 3d3ca361
onnx::Gather_25: 3e12f72a
onnx::Concat_4650: 3d1985a7
onnx::Add_4372: 3d316ddb
onnx::Unsqueeze_26: 3c010204
onnx::Concat_4648: 3d217f04
onnx::Gather_28: 3c010204
onnx::Concat_4644: 3d251bc8
onnx::Unsqueeze_29: 24810204
onnx::Mul_3389: 3c068706
onnx::Gather_31: 24810204
onnx::Add_4286: 3cc8d4a7
onnx::Unsqueeze_33: 3c638959
input.1475: 3d3ca361
onnx::Slice_35: 3c638959
onnx::Add_4453: 3d17bdd7
onnx::Unsqueeze_37: 3c638959
onnx::Concat_4640: 3d317f66
onnx::Slice_39: 3c638959
onnx::Concat_4636: 3d349dc3
onnx::Unsqueeze_41: 3c5fddf7
onnx::Slice_43: 3c5fddf7
Softmax_5819_output: 3c010204
onnx::Unsqueeze_45: 3c5fddf7
onnx::Shape_3186_InputLayer_output: 3ca0ba2f
onnx::Slice_47: 3c5fddf7
attn.71: 3dc4ec37
onnx::Unsqueeze_49: 3c38296e
attn.183: 3da42b94
onnx::Slice_51: 3c38296e
ONNXTRT_Broadcast_7864_output: 3c810204
onnx::Unsqueeze_53: 3c367b23
ONNXTRT_Broadcast_6653_output: 38ce6c60
onnx::Slice_55: 3c367b23
x.635: 3d3e5aeb
onnx::Unsqueeze_57: 3daac91f
Gemm_5300_output: 3c97274c
onnx::Slice_59: 3daac91f
onnx::Unsqueeze_61: 3d836868
onnx::Slice_63: 3d836868
x.451: 3e0c2837
onnx::Unsqueeze_65: 3cf2a0ed
ONNXTRT_Broadcast_6110_output: 3c810204
onnx::Slice_67: 3cf2a0ed
onnx::Shape_1921_InputLayer_output: 3d0ac25b
onnx::Unsqueeze_69: 3ce45377
input.1479: 4af04bbf
onnx::Slice_71: 3ce45377
attn: 3e4e919a
onnx::Unsqueeze_73: 3d10daea
input.1491: 3d3a1e38
onnx::Slice_75: 3d10daea
onnx::Shape_3447: 3c87d855
onnx::Unsqueeze_77: 3f7c94ce
ONNXTRT_Broadcast_4577_output: 3bfe643a
onnx::Slice_79: 3f7c94ce
onnx::Shape_2537_InputLayer_output: 3e334081
onnx::Unsqueeze_81: 3f7c94ce
onnx::Add_2317_output: 38ba2bfc
onnx::Slice_83: 3f7c94ce
input.1531: 3cb9a5f3
onnx::Unsqueeze_85: 3edc9a19
input.891: 3e0817c8
onnx::Slice_87: 3edc9a19
input.783: 3ec4e0dc
onnx::Unsqueeze_89: 3d199622
attn.179: 3e242b94
onnx::Slice_91: 3d199622
k.59: 3d76e0df
onnx::Unsqueeze_93: 3d17799a
ONNXTRT_Broadcast_7829_output: 3ca325c4
onnx::Slice_95: 3d17799a
onnx::MatMul_5276_output: 3b1f4dda
onnx::Unsqueeze_97: 3d17799a
ONNXTRT_Broadcast_4685_output: 3c810204
onnx::Slice_99: 3d17799a
ONNXTRT_Broadcast_7825_output: 38b4fe08
onnx::Unsqueeze_101: 3d145b7a
onnx::Shape_2009: 3d0cf1a0
onnx::Slice_103: 3d145b7a
onnx::Add_4610: 3cf3e984
onnx::Unsqueeze_105: 3e13336d
ONNXTRT_Broadcast_7823_output: 3b1fb1c7
onnx::Slice_107: 3e13336d
onnx::MatMul_5275_output: 3b1fb1c7
onnx::Unsqueeze_109: 3e13336d
k.43: 3d349666
onnx::Slice_111: 3e13336d
Softmax_5794_output: 3c010204
onnx::Unsqueeze_113: 3e207ba3
ONNXTRT_Broadcast_7720_output: 3c810204
onnx::Slice_115: 3e207ba3
onnx::Unsqueeze_117: 3e348310
onnx::Slice_119: 3e348310
attn.171: 3d98b226
onnx::Unsqueeze_121: 3e05f055
onnx::Add_3247_output: 3c013db1
onnx::Slice_123: 3e05f055
input.787: 3ec4e0dc
onnx::Unsqueeze_125: 3e1b2c56
q.39: 3cdf7b31
onnx::Slice_127: 3e1b2c56
onnx::Unsqueeze_129: 3e1b2c56
ONNXTRT_Broadcast_7155_output: 3b1c3463
onnx::Slice_131: 3e1b2c56
onnx::Mul_3825: 3c9e8a03
onnx::Unsqueeze_133: 3e141b6b
ONNXTRT_Broadcast_5291_output: 3bf0c3f4
onnx::Slice_135: 3e141b6b
x.3: 3cca325d
onnx::Mul_3216_output: 3c810204
input.3: 3c010204
onnx::Add_4755_output: 3968f393
input.7: 0
input.11: 24810204
ONNXTRT_Broadcast_4395_output: 3be0da36
input.15: 3cca325d
ONNXTRT_Broadcast_4544_output: 3bea05f6
input.1383: 3d887d32
input.1559: 3d393f91
onnx::Add_4053: 3c06947a
onnx::Mul_2829_output: 3b81d394
onnx::MatMul_5268_output: 3b1cb897
skip.119: 3d0b1ac7
y.59: 3d0cf1a0
input.1035: 3c638959
ONNXTRT_Broadcast_7349_output: 3a906984
Gemm_5190_output: 3c9e3390
onnx::LSTM_3956: 3ca47c70
input.851: 3e8996a2
ONNXTRT_Broadcast_7201_output: 38abbeaf
onnx::Gemm_3795_output: 39115dde
ONNXTRT_Broadcast_3938_output: 3b81f968
x.315: 3d4d4094
onnx::Shape_1657_InputLayer_output: 3d048045
input.659: 3f064741
onnx::Add_1694: 3d989ad6
onnx::MatMul_4992_output: 3bf5560e
input.819: 3e936eb4
input.719: 3d248155
ONNXTRT_Broadcast_4548_output: 3bbef75e
onnx::Mul_2412: 3e54b6c7
onnx::Concat_3687: 3cb294a1
onnx::Shape_153: 3cca325d
onnx::Sigmoid_2765: 3e6a199c
ONNXTRT_Broadcast_4852_output: 390ebcf0
onnx::MatMul_5014_output: 3adbde92
onnx::Add_3159: 3c593d8c
3455: 3c87d855
161: 3cca325d
onnx::Unsqueeze_3331: 3cb4d9fc
onnx::Shape_153_InputLayer_output: 3cca325d
x.7: 3cca325d
onnx::Mul_163_output: 3b81c628
ONNXTRT_Broadcast_output: 3b81c628
onnx::Mul_164: 3c4aba74
onnx::Mul_165_output: 3c810204
ONNXTRT_Broadcast_63_output: 3c810204
input.19: 3ccaba74
onnx::Unsqueeze_169: 3ca14fea
onnx::Gemm_170_output: 3c007a7f
Gemm_1995_output: 3c007a7f
onnx::Gemm_171_output: 3bfe33c4
ONNXTRT_Broadcast_71_output: 3bfe33c4
x.11: 3c7f9461
ONNXTRT_Broadcast_3948_output: 3bdd0a54
input.23: 3c7f9461
onnx::Sigmoid_4712: 3cc7bc9b
skip.123: 3cbf4800
onnx::Add_2409: 3e608dba
ONNXTRT_Broadcast_7731_output: 3b1df932
ONNXTRT_Broadcast_4981_output: 3b81d394
input.1143: 3d026dae
onnx::Add_4589_output: 39fd3100
ONNXTRT_Broadcast_4846_output: 3be52954
q.55: 3cf9f9d9
onnx::Add_1613_output: 38b8c24d
onnx::Mul_2830: 3d8c6d13
onnx::Add_4584_output: 388e9f3e
ONNXTRT_Broadcast_7528_output: 3c810204
x.455: 3e0b8a67
prediction: 3cd6171c
onnx::Mul_2831_output: 3c810204
input.1047: 3c38296e
input.1031: 3c5890ad
outputs.3: 3c4ff3b1
ONNXTRT_Broadcast_7775_output: 3b1cf35f
ONNXTRT_Broadcast_4256_output: 38cb942c
onnx::Unsqueeze_2771: 3cd20bf3
onnx::Add_2580: 3ebb8a9d
onnx::Shape_184: 3c5c08aa
onnx::Mul_2764: 3e3fcd47
onnx::Add_2762_output: 390ebcf0
onnx::MatMul_5273_output: 3b1cf35f
ONNXTRT_Broadcast_3089_output: 3bf96f45
onnx::MatMul_5048_output: 3bdec6bd
onnx::Add_3485_output: 3909d9ab
onnx::Add_2761: 3e6a1e85
192: 3c5c08aa
onnx::Concat_4660: 3d25140a
onnx::Shape_184_InputLayer_output: 3c5c08aa
x.15: 3c5c08aa
onnx::Mul_194_output: 3b81cf0e
ONNXTRT_Broadcast_107_output: 3b81cf0e
onnx::Mul_195: 3bdae6b8
onnx::Mul_196_output: 3c810204
ONNXTRT_Broadcast_109_output: 3c810204
input.27: 3c5ae6b8
4799: 3c010204
skip: 3ca3bce5
onnx::Gemm_201_output: 3bde05db
Gemm_2024_output: 3c42ada2
onnx::Gemm_202_output: 38d7f3f1
ONNXTRT_Broadcast_117_output: 38d7f3f1
input.31: 3c42c4f6
input.35: 3c3643a4
onnx::Gemm_205_output: 3bf70100
Gemm_2028_output: 3c9627b7
onnx::Gemm_206_output: 38ded379
ONNXTRT_Broadcast_119_output: 38ded379
input.39: 3c95e35e
onnx::Gemm_208_output: 3ad57b00
Gemm_2031_output: 3c34b872
onnx::Gemm_209_output: 3903b461
ONNXTRT_Broadcast_121_output: 3903b461
input.43: 3c348307
Gemm_5157_output: 3cdeefd1
attn.67: 3c010204
onnx::Concat_4677: 3c010204
input.1503: 4af04bbf
onnx::Mul_211: 3c348307
onnx::Sigmoid_212: 3c27bc63
onnx::Mul_213: 3bcac433
x.19: 3bf24a28
input.47: 3cb0b934
ONNXTRT_Broadcast_6128_output: 39744541
onnx::MatMul_4998_output: 3bcf89ba
onnx::Unsqueeze_218: 3ca75872
onnx::Gemm_219_output: 3beb2d36
Gemm_2041_output: 0
onnx::Gemm_220_output: 3beb5cf8
ONNXTRT_Broadcast_141_output: 3beb5cf8
x.23: 3beb5cf8
x.239: 3d0c1a89
input.51: 3beb5cf8
ONNXTRT_Broadcast_4877_output: 3bfc955b
onnx::Concat_3681: 3cab7ce2
onnx::Unsqueeze_3090: 3b9af528
input.1039: 3c4ef0e3
onnx::Sigmoid_1621: 3d554236
Softmax_4544_output: 3b9af528
input.1027: 3cf75c68
input.655: 3f32fcd6
ONNXTRT_Broadcast_5132_output: 3c810204
input.1279: 3cef87f8
ONNXTRT_Broadcast_6573_output: 393db926
input.1223: 3cac9c2a
onnx::Sqrt_4600: 3d010204
q.11: 3cc8b813
input.567: 3da0e9a7
ONNXTRT_Broadcast_2756_output: 3bf37c7b
input.1023: 3e6e68c5
onnx::Shape_2097: 3d14192d
onnx::Transpose_4036: 3bbcccb9
onnx::Add_4721: 3d1a3330
onnx::Concat_4656: 3d0050be
onnx::Shape_233: 3bea19c8
x.251: 3d339c63
onnx::Add_3508_output: 3bf9bdad
onnx::MatMul_4213: 3d2241be
input.751: 3d0fa0d4
x.215: 3cd1df5d
onnx::Add_4042_output: 39598b87
ONNXTRT_Broadcast_4850_output: 3ad4356f
241: 3bea19c8
onnx::Add_3490: 3d06efe0
onnx::Shape_233_InputLayer_output: 3bea19c8
x.27: 3bea19c8
onnx::Mul_243_output: 3b81d35d
ONNXTRT_Broadcast_177_output: 3b81d35d
onnx::Mul_244: 3b6b6cd4
onnx::Mul_245_output: 3c810204
ONNXTRT_Broadcast_179_output: 3c810204
input.55: 3beb6cd4
onnx::Add_3670_output: 38feef45
ONNXTRT_Broadcast_6277_output: 39947eb7
skip.3: 3c77aed2
onnx::Gemm_250_output: 3bea1ca4
Gemm_2070_output: 3c8a5ab9
onnx::Gemm_251_output: 389fff29
ONNXTRT_Broadcast_187_output: 389fff29
input.59: 3c8aac2f
input.63: 3c6d1d9b
onnx::Gemm_254_output: 3bc2bb5b
Gemm_2074_output: 3c957d49
onnx::Gemm_255_output: 38ad989f
ONNXTRT_Broadcast_189_output: 38ad989f
input.67: 3c95cc86
onnx::Gemm_257_output: 3ad21265
Gemm_2077_output: 3c7167a0
onnx::Gemm_258_output: 38e57f28
ONNXTRT_Broadcast_191_output: 38e57f28
input.71: 3c721e91
input.1307: 3c5890ad
onnx::Mul_1710: 3c00334e
onnx::Add_2070: 3d165dbc
onnx::Unsqueeze_1891: 3ccfbe51
input.603: 3d7c8729
onnx::Add_4265_output: 3c6ffa69
ONNXTRT_Broadcast_7253_output: 3c8068fb
onnx::Add_2247_output: 3c0050aa
onnx::Mul_260: 3c721e91
onnx::Sigmoid_261: 3c42fe28
onnx::Mul_262: 3bc8a8a3
x.31: 3c3c4bd1
input.75: 3ca73f38
onnx::Add_4481_output: 39802c49
onnx::LSTM_3857: 3c5890ad
onnx::Unsqueeze_267: 3ca4984d
onnx::Gemm_268_output: 3bfd85e2
Gemm_2087_output: 247d85e2
onnx::Gemm_269_output: 3bfbfb04
ONNXTRT_Broadcast_214_output: 3bfbfb04
x.35: 3bfbfb04
input.79: 3bfbfb04
onnx::Add_2775_output: 3bfc955b
onnx::Add_2774: 3e088eaf
x.495: 3e876335
onnx::Add_4232: 3cd54c95
onnx::Sigmoid_3083: 3e19f20d
attn.155: 3dccad32
Softmax_5669_output: 3c010204
k.51: 3d1ccf95
onnx::Add_4775: 3fb70bc2
onnx::Add_4562_output: 3a17f481
onnx::Shape_3273_InputLayer_output: 3c8cea79
onnx::Add_4561: 3d1d7d31
ONNXTRT_Broadcast_7729_output: 388679fa
input.823: 3e60a526
input.1019: 3e87be66
onnx::Add_2486: 3e8ca0d2
onnx::Add_4556: 3cd5ac8c
ONNXTRT_Broadcast_5297_output: 38fd2463
onnx::Mul_4046: 3bad6f06
onnx::MatMul_5271_output: 3b1e9434
ONNXTRT_Broadcast_4875_output: 3be30fe6
onnx::Shape_282: 3becb0b6
onnx::MatMul_5084_output: 3ad4356f
onnx::Shape_2713_InputLayer_output: 3e16dd2a
attn.151: 3c010204
ONNXTRT_Broadcast_4848_output: 38992144
290: 3becb0b6
onnx::Concat_4662: 3d31b7ff
onnx::Shape_282_InputLayer_output: 3becb0b6
x.39: 3becb0b6
onnx::Mul_292_output: 3b81a768
ONNXTRT_Broadcast_250_output: 3b81a768
onnx::Mul_293: 3b6ce7a1
onnx::Mul_294_output: 3c810204
ONNXTRT_Broadcast_252_output: 3c810204
input.83: 3bece7a1
tensor: 3ca8c559
(Unnamed Layer* 8143) [Shuffle]_output: 3a949d7d
skip.7: 3c9b2d35
onnx::Gemm_299_output: 3be596cd
Gemm_2116_output: 3c6cc4c7
onnx::Gemm_300_output: 3833b400
ONNXTRT_Broadcast_260_output: 3833b400
input.87: 3c6cf64d
input.91: 3c6cf64d
onnx::Gemm_303_output: 3bd7d924
Gemm_2120_output: 3cd5411a
onnx::Gemm_304_output: 388eb287
ONNXTRT_Broadcast_262_output: 388eb287
input.95: 3cd530d7
onnx::Gemm_306_output: 3acf023c
Gemm_2123_output: 3c4e4371
onnx::Gemm_307_output: 38adb4a9
ONNXTRT_Broadcast_264_output: 38adb4a9
input.99: 3c4ede7f
onnx::MatMul_5049_output: 3ad4e973
y.79: 3e0a2c23
2457: 3e0a2c23
onnx::Unsqueeze_4772: 3edc9a19
ONNXTRT_Broadcast_4844_output: 38e14ca5
x.391: 3e0a2c23
onnx::Mul_3562_output: 3b824ab9
dimension.35: 3c810204
onnx::Mul_309: 3c4ede7f
onnx::Sigmoid_310: 3c1c9995
onnx::Mul_311: 3bc6ecfc
x.43: 3be7a800
input.103: 3c9a51c9
attn.123: 3d57c092
input.767: 3d486d6f
onnx::Unsqueeze_316: 3c99ad24
onnx::Concat_318: 3ca14fea
input.1495: 4af04bbf
onnx::Concat_320: 3ca75872
onnx::Concat_322: 3ca4984d
attn.147: 3d38b832
onnx::Concat_324: 3c99ad24
var_outputs: 3ca75872
x.47: 3cca325d
input.107: 3cca325d
input.939: 3e43054c
x.443: 3e37a58f
k.55: 3d3630c5
x.399: 3e367ed4
onnx::Add_2574: 3ed22758
input.1391: 3d663b9d
onnx::Add_1783_output: 38d164b7
onnx::Shape_3719: 3c444f8c
y.95: 3e0b8a67
input.1071: 3d005335
onnx::Add_4709_output: 3935f098
onnx::MatMul_5068_output: 3bea05f6
input.543: 3d7cc3fb
ONNXTRT_Broadcast_3046_output: 3c810204
ONNXTRT_Broadcast_4546_output: 38b550da
onnx::Add_2581_output: 38c921a4
x.259: 3f78a9fd
input.1163: 3d06d475
ONNXTRT_Broadcast_7827_output: 3b1f4dda
ONNXTRT_Broadcast_5975_output: 391bf957
input.875: 3ebb89f0
input.867: 3ed228f4
onnx::Add_3491_output: 39194c9d
ONNXTRT_Broadcast_5285_output: 3ad4bcab
onnx::Mul_2766: 3c010204
onnx::Shape_339: 3cca325d
input.935: 3e6a199c
onnx::Concat_3689: 3cd98fe2
onnx::Add_2663_output: 38a2e017
onnx::Add_1881: 3f32fc30
onnx::Mul_1511_output: 3c810204
onnx::Add_3582: 3cc5126f
x.571: 3c83db9c
skip.107: 3ca4e5a1
347: 3cca325d
skip.83: 3ca6b24f
onnx::Shape_339_InputLayer_output: 3cca325d
x.51: 3cca325d
onnx::Mul_349_output: 3b8177cc
ONNXTRT_Broadcast_321_output: 3b8177cc
onnx::Mul_350: 3c499e8b
onnx::Mul_351_output: 3c810204
ONNXTRT_Broadcast_323_output: 3c810204
input.111: 3cc99e8b
onnx::Add_2686: 3e1abd7f
ONNXTRT_Broadcast_4728_output: 3bf25a79
skip.11: 3c599a46
onnx::Gemm_356_output: 3b5c244d
Gemm_2169_output: 3c66e0dd
onnx::Gemm_357_output: 3810a51d
ONNXTRT_Broadcast_331_output: 3810a51d
input.115: 3c670926
input.119: 3c670926
onnx::Gemm_360_output: 3c24b11e
Gemm_2173_output: 3c9de6aa
onnx::Gemm_361_output: 37f1775d
ONNXTRT_Broadcast_333_output: 37f1775d
input.123: 3c9e110b
onnx::Gemm_363_output: 3bafb1e6
Gemm_2176_output: 3cc7e087
onnx::Gemm_364_output: 38e67f4f
ONNXTRT_Broadcast_335_output: 38e67f4f
input.127: 3cc7d963
x.447: 3e0c2837
ONNXTRT_Broadcast_6002_output: 3c00c3cf
input.1187: 3ced5f00
onnx::MatMul_5180_output: 3b1684ec
ONNXTRT_Broadcast_2748_output: 3c810204
onnx::Shape_2449: 3e0a2c23
onnx::Add_3403: 3d4487b0
input.1055: 3a4e69a0
onnx::Mul_366: 3cc7d963
onnx::Sigmoid_367: 3c488a98
onnx::Mul_368: 3bd501e7
x.55: 3c52efee
input.131: 3c784bc3
ONNXTRT_Broadcast_6553_output: 3c810204
input.135: 3c5c0a97
Softmax_2184_output: 3bb00df0
onnx::Unsqueeze_374: 3bb00df0
onnx::Shape_2273: 3e089e62
ONNXTRT_Broadcast_7779_output: 3b2055a9
sparse_weights: 3bb00df0
outputs: 3c51b810
input.139: 3c83b53e
onnx::Gemm_380_output: 3bacc5f2
Gemm_2192_output: 3cab8a89
onnx::Gemm_381_output: 38c04426
ONNXTRT_Broadcast_362_output: 38c04426
input.143: 3cab08d6
input.147: 3c9aee8e
onnx::Gemm_384_output: 3ba509ca
Gemm_2196_output: 3cad4c17
onnx::Gemm_385_output: 38bb5530
ONNXTRT_Broadcast_364_output: 38bb5530
input.151: 3cad7801
onnx::Gemm_387_output: 3ac4360a
Gemm_2199_output: 3cbb8b5f
onnx::Gemm_388_output: 38f0ca3a
ONNXTRT_Broadcast_366_output: 38f0ca3a
input.155: 3cbc5134
onnx::Mul_3326: 3bf8f964
input.1123: 3c868706
onnx::Add_2159_output: 3c001815
input.1147: 3c94088f
onnx::Add_3322_output: 3946bcc4
onnx::Mul_3082: 3e87be66
onnx::Mul_4713: 3bf6db12
onnx::Add_1876: 3f8cfc10
onnx::Mul_390: 3cbc5134
onnx::Sigmoid_391: 3c9e1761
onnx::Mul_392: 3bead29c
x.59: 3c8201ce
input.159: 3cce1c57
ONNXTRT_Broadcast_5555_output: 3bf65728
context: 3cd4c489
onnx::Expand_399: 3cd4c489
onnx::Add_3317_output: 392d0bb3
onnx::Sigmoid_4057: 3bb8c59d
input.527: 3cd273ee
onnx::Unsqueeze_2507: 3cdb9c8e
input.1563: 3d259979
input.1363: 3c9b20b9
3542: 3c83db9c
onnx::Mul_2037_output: 3b822984
attn.143: 3db8b832
onnx::Mul_2215_output: 3c810204
ONNXTRT_Broadcast_5830_output: 3946bcc4
ONNXTRT_Broadcast_5971_output: 394e7a79
onnx::Add_2511_output: 3bfeff8c
ONNXTRT_Broadcast_7781_output: 39fd3100
x.359: 3e089e62
onnx::Sigmoid_3775: 3d48080f
ONNXTRT_Broadcast_6565_output: 3b1684ec
input.1219: 3cd0a64a
onnx::MatMul_5069_output: 3bbef75e
x.271: 3edaf89e
onnx::Mul_1509_output: 3b81e32b
onnx::Add_2674_output: 38c767ee
onnx::Mul_2302: 3d8841f7
static_context_variable_selection: 3cd4c489
onnx::Add_3079: 3e87b63d
onnx::Mul_3476: 3c07585c
input.1011: 3e7f3bbb
ONNXTRT_Broadcast_7432_output: 3c810204
ONNXTRT_Broadcast_5295_output: 3b13e424
ONNXTRT_Broadcast_6939_output: 3bacfd81
k.47: 3d1dd411
y.111: 3c8cea79
onnx::Add_3080_output: 38fd2463
input.1015: 3e380527
ONNXTRT_Broadcast_3354_output: 38e0c05d
onnx::MatMul_5270_output: 3b1c1a92
ONNXTRT_Broadcast_5293_output: 3882d0e1
context.3: 3ca7e606
ONNXTRT_Broadcast_5289_output: 3b06f71c
input.1007: 3ee262ef
onnx::MatMul_5103_output: 3b06f71c
onnx::MatMul_5257_output: 3b205e3a
x.491: 3eda23ab
onnx::MatMul_5104_output: 3bf0c3f4
ONNXTRT_Broadcast_5287_output: 3843d92a
onnx::Add_3065_output: 3843d92a
onnx::Add_3064: 3eda20c1
onnx::Add_3074: 3e380a2c
onnx::Add_1607_output: 38b28d97
input.163: 3c6182b3
onnx::Mul_3056: 3e1c46f9
ONNXTRT_Broadcast_5275_output: 3b81798e
onnx::MatMul_5269_output: 3b20b41c
x.647: 3d15227b
onnx::MatMul_4991_output: 3bbf8c9b
ONNXTRT_Broadcast_7443_output: 3b1a83fa
onnx::MatMul_5102_output: 3ad4bcab
input.1003: 3e9c46f9
Softmax_5719_output: 3c010204
onnx::Mul_3055_output: 3b81798e
ONNXTRT_Broadcast_3238_output: 3bfa31b6
x.487: 3e9c2997
2017: 3d0cf1a0
input.691: 3d20753e
onnx::Gemm_4068_output: 38c05af3
ONNXTRT_Broadcast_5979_output: 397afde1
onnx::Mul_3057_output: 3c810204
input.167: 3c638959
ONNXTRT_Broadcast_3342_output: 3b81ee25
ONNXTRT_Broadcast_7144_output: 3c810204
onnx::Mul_1775_output: 3c810204
onnx::MatMul_5277_output: 3b1efd59
onnx::Add_3234: 3cab95aa
onnx::MatMul_5140_output: 3adbdfce
onnx::Mul_3650: 3b81fd8c
onnx::Mul_3237: 3c9b4d07
onnx::Mul_1774: 3ee78009
ONNXTRT_Broadcast_7777_output: 388e9f3e
ONNXTRT_Broadcast_7585_output: 38b4ae04
input.1403: 3d349dc3
onnx::Unsqueeze_3592: 3cd98fe2
onnx::Add_2750: 3e83d9e9
onnx::Mul_2500: 3e84672f
skip.51: 3ca06060
input.1511: 4af04bbf
ONNXTRT_Broadcast_3203_output: 3c13134a
input.171: 3c5fddf7
x.431: 3e1fe6a8
ONNXTRT_Broadcast_2758_output: 3901d455
onnx::MatMul_5161_output: 3ade3977
ONNXTRT_Broadcast_3656_output: 38adf84f
skip.63: 3cc7febf
onnx::MatMul_5246_output: 3b1dc7f5
onnx::Add_3772_output: 393db926
Softmax_5769_output: 3c010204
1489: 3cd1df5d
attn.7: 3c010204
onnx::Concat_3685: 3ce90546
onnx::Add_1519_output: 3901d455
norm: 3f7c94ce
ONNXTRT_Broadcast_4697_output: 3be2fcf5
onnx::Add_3321: 3d0f4dec
onnx::MatMul_5005_output: 3c13134a
input.1379: 3d419a16
q.35: 3ce3e39a
ONNXTRT_Broadcast_4983_output: 3c810204
onnx::MatMul_4510: 3d349666
input.931: 3eb8fc74
input.175: 3c5fddf7
x.611: 3d29e264
onnx::Mul_3500: 3bf9d6fb
q.43: 3cd9482f
ONNXTRT_Broadcast_7727_output: 3b1e9434
ONNXTRT_Broadcast_3534_output: 3bfa5399
onnx::Shape_2801: 3e0b8a67
onnx::Add_4502: 3cd9ca34
y.103: 3e9c2997
onnx::Shape_2097_InputLayer_output: 3d14192d
onnx::Shape_3027_InputLayer_output: 3e9c2997
ONNXTRT_Broadcast_7631_output: 3b1d9ede
onnx::Mul_2039_output: 3c810204
3035: 3e9c2997
ONNXTRT_Broadcast_6845_output: 39598b87
onnx::Mul_4121: 3c00d376
y.39: 3d17b3ca
onnx::Add_1871_output: 38e0c05d
input.1235: 3c450ec1
padded_output.3: 3bbcccb9
input.1355: 3c9496ec
input.943: 3e0c2837
Softmax_5694_output: 3c010204
onnx::Shape_3027: 3e9c2997
input.179: 3c38296e
onnx::Add_2422: 3e1e285b
onnx::MatMul_5162_output: 3bfdcd5b
onnx::Shape_3534_InputLayer_output: 3c83db9c
onnx::Add_2046: 3d8d5aba
onnx::Sqrt_4492: 3d010204
onnx::Add_2673: 3e25d587
ONNXTRT_Broadcast_4397_output: 38c604de
2809: 3e0b8a67
input.927: 3e82d7ab
input.1435: 3d251bc8
k.31: 3d4ff615
ONNXTRT_Broadcast_3801_output: 38a7613e
input.1175: 3c888c3e
2281: 3e089e62
onnx::MatMul_5234_output: 3ac88051
onnx::Sigmoid_2061: 3d6b0aa6
onnx::Add_3421_output: 3c008562
onnx::Gemm_3815_output: 3bad43a9
onnx::Add_1793: 3ff4e226
input.183: 3c367b23
input.1267: 3cdf64b7
ONNXTRT_Broadcast_6426_output: 38feef45
onnx::Sqrt_4519: 3d010204
onnx::MatMul_5019_output: 3bddde4f
onnx::Add_2134: 3d68b9a6
ONNXTRT_Broadcast_2762_output: 38ca69bb
onnx::Sigmoid_4120: 3d657104
ONNXTRT_Broadcast_4401_output: 38fcd457
ONNXTRT_Broadcast_4250_output: 3bdda034
ONNXTRT_Broadcast_7397_output: 39b2e676
input.639: 3ed61458
input.539: 3d9d6bb1
onnx::Add_4201_output: 38684f55
onnx::Concat_4685: 3c010204
onnx::Sigmoid_2149: 3d14f0af
ONNXTRT_Broadcast_3060_output: 38da38fe
ONNXTRT_Broadcast_2764_output: 3ad6c065
ONNXTRT_Broadcast_4693_output: 3bbbe00b
input.999: 3f78a9fd
onnx::MatMul_5247_output: 3b1c4378
onnx::Shape_2273_InputLayer_output: 3e089e62
onnx::Add_2492: 3ea29f22
input.187: 3daac91f
onnx::Mul_1597_output: 3b81a2b0
onnx::Add_3756: 3d0c21aa
onnx::Add_1618_output: 38f90fcc
ONNXTRT_Broadcast_2766_output: 38e7239f
onnx::MatMul_4294: 3d49ca0e
onnx::MatMul_5033_output: 3bc25b94
x.243: 3d0c1a89
onnx::MatMul_5008_output: 3c00bfd4
x.227: 3d21b10f
onnx::MatMul_4986_output: 3ad6c065
onnx::Gemm_3819_output: 3bc42dfa
onnx::Gemm_3791_output: 3ba09787
onnx::Sigmoid_3673: 3cac9c2a
ONNXTRT_Broadcast_7587_output: 3b21242e
dimension.11: 3c810204
input.907: 3e25d1e1
onnx::MatMul_5034_output: 3bf31384
k.15: 3d1bed0e
input.1043: 3c5fddf7
input.191: 3d836868
onnx::Add_3766: 3d672438
Gemm_5161_output: 3cded9da
onnx::Concat_3691: 3cbb2e22
x.375: 3e059154
input.855: 3e460d1e
q.51: 3cd5f9fd
ONNXTRT_Broadcast_6269_output: 391593da
skip.151: 3d08c196
onnx::MatMul_5062_output: 3bf00bde
x.395: 3e46dc29
x.511: 3c51a824
y.123: 3c83db9c
x.479: 3f78a9fd
onnx::Add_4535_output: 3b79598d
var_outputs.3: 3d0e275a
onnx::Concat_2999: 3d00c17d
input.1283: 3c8bc0d3
ONNXTRT_Broadcast_2760_output: 3be15d50
onnx::Add_1524: 3d9d6324
onnx::MatMul_5168_output: 3add4c75
input.195: 3cf2a0ed
onnx::Concat_2993: 3ccc2011
onnx::MatMul_4483: 3d3cf5b4
onnx::Concat_2989: 3cdb9c8e
onnx::Concat_2991: 3ccef7b9
ONNXTRT_Broadcast_4399_output: 3bf00bde
onnx::Concat_2997: 3ce0769a
ONNXTRT_Broadcast_7904_output: 390090db
onnx::Concat_2987: 3ce10fb4
onnx::Concat_2995: 3cd20bf3
onnx::Mul_2477_output: 3b819fff
ONNXTRT_Broadcast_4842_output: 3bd41402
onnx::Concat_2981: 3cc051a2
onnx::Add_2493_output: 38fcd457
onnx::Concat_2983: 3ca8c314
y.51: 3ed48f49
onnx::Concat_2979: 3ceb2fc4
input.1199: 3cef1ee0
onnx::Concat_2977: 3cb5454d
onnx::Concat_2985: 3d0e275a
onnx::Add_4529: 3cbb6054
input.199: 3ce45377
onnx::Unsqueeze_3418: 3ce90546
onnx::Concat_2973: 3cd1d96b
ONNXTRT_Broadcast_4281_output: 3bfac1f6
onnx::Add_4116: 3d699af9
onnx::Add_4476_output: 38b4ae04
onnx::MatMul_5265_output: 3b1c4dca
onnx::Concat_2971: 3d006b94
onnx::Add_3397: 3cd1bbc4
ONNXTRT_Broadcast_6126_output: 3ade3977
onnx::Add_1719_output: 3bf96f45
onnx::Concat_2975: 3ccfbe51
onnx::Concat_2969: 3cbc9b47
ONNXTRT_Broadcast_7203_output: 3b20b416
onnx::Concat_2965: 3d01baea
onnx::Mul_3585: 3cc5a2a0
Softmax_5619_output: 3c010204
onnx::Sqrt_4384: 3d010204
onnx::Add_4728_output: 390090db
onnx::Concat_2963: 3ce79405
onnx::Concat_2967: 3cd3d5f4
ONNXTRT_Broadcast_6649_output: 38c808d8
input.203: 3d10daea
onnx::Concat_2959: 3cb15403
onnx::MatMul_5055_output: 3bdda034
input.1295: 3cd39cb1
onnx::Concat_2957: 3cc1447a
onnx::MatMul_5152_output: 3bd20fb1
x.527: 3cbaa6f7
onnx::Concat_2955: 3cd524b4
attn.111: 3dc61445
onnx::Unsqueeze_3244: 3cab7ce2
ONNXTRT_Broadcast_2911_output: 38b8c24d
onnx::Concat_2961: 3cc5b0cd
onnx::Concat_2953: 3cab3371
onnx::Unsqueeze_2155: 3cc051a2
onnx::Gemm_4071_output: 38d108a7
ONNXTRT_Broadcast_3054_output: 3bcf89ba
onnx::Unsqueeze_2947: 3d00c17d
input.1539: 3d164eda
onnx::Concat_2951: 3cbc408a
input.207: 3d10daea
input.995: 3e564d3f
x.475: 3e4e5b0f
onnx::MatMul_5036_output: 3be7851a
input.1551: 3d08f5d7
onnx::Sigmoid_2941: 3e0f2dc7
onnx::Mul_2940: 3e4e5c9a
onnx::Mul_2942: 3c010204
input.1427: 3d27848b
ONNXTRT_Broadcast_5973_output: 3bdf5404
input.827: 3e529a34
input.1499: 3d25140a
onnx::MatMul_4985_output: 3be15d50
input.1119: 3c93898d
onnx::Add_1794_output: 38fc1a82
input.739: 3d1c152a
onnx::MatMul_5166_output: 3be02552
onnx::Add_1882_output: 390fa7c8
ONNXTRT_Broadcast_7966_output: 3968f393
input.1419: 3d317f66
onnx::MatMul_5278_output: 3ace3edf
input.551: 3d21b10f
x.595: 3ca5f35d
k.7: 3d26bba5
onnx::Concat_4675: 3c010204
input.211: 3f7c94ce
onnx::Unsqueeze_1539: 3cd3d5f4
onnx::Add_4534: 3d1484a4
x.219: 3d0a906b
ONNXTRT_Broadcast_5148_output: 3ad25aaa
input.991: 3e4e5c9a
ONNXTRT_Broadcast_5150_output: 38d491e0
onnx::Concat_4691: 3c010204
x.223: 3d21b10f
ONNXTRT_Broadcast_7157_output: 39c1a4e6
onnx::Add_2938_output: 38d491e0
ONNXTRT_Broadcast_7991_output: 3a32bfef
onnx::Add_2937: 3e4e4ba2
onnx::MatMul_5098_output: 3ad25aaa
ONNXTRT_Broadcast_3358_output: 38e09210
attn.107: 3e461445
ONNXTRT_Broadcast_5146_output: 38aaafab
onnx::Add_4615: 3d35d230
onnx::Add_2933_output: 38aaafab
k.35: 3d44b219
input.1415: 4af04bbf
onnx::Add_2398: 3ebcead4
onnx::Add_2932: 3e940eb1
onnx::MatMul_5264_output: 3b1d3e8d
onnx::MatMul_5097_output: 3bdb9eb4
input.215: 3edc9a19
onnx::Add_4449_output: 38ac73bd
ONNXTRT_Broadcast_5142_output: 38edd1b7
input.1371: 3cc017cd
ONNXTRT_Broadcast_7535_output: 3b1abafc
onnx::Add_2927_output: 38edd1b7
input.791: 3edf6759
onnx::Add_3223: 3d004a6a
input.983: 3e85a9d2
onnx::Add_2926: 3e927c0f
onnx::MatMul_5146_output: 3beba346
input.979: 3e927cca
onnx::Sqrt_4465: 3d010204
ONNXTRT_Broadcast_5140_output: 3bd317cb
dimension.43: 3c810204
input.975: 3df264e2
ONNXTRT_Broadcast_6122_output: 3be1bed9
onnx::Mul_2919_output: 3c810204
onnx::Mul_2918: 3d7264e2
input.1299: 3c9e8a03
ONNXTRT_Broadcast_5130_output: 3b81b0f5
input.775: 3e11e767
onnx::MatMul_5096_output: 3bd317cb
input.219: 3d199622
ONNXTRT_Broadcast_3352_output: 3bcde75d
attn.3: 3dce919a
Softmax_5644_output: 3c010204
onnx::Add_3409_output: 397afde1
onnx::Add_2311_output: 389d6b9a
ONNXTRT_Broadcast_7493_output: 3aa46f04
onnx::Mul_2917_output: 3b81b0f5
skip.127: 3cad773b
q.15: 3cbd6869
x.471: 3df2007b
onnx::Add_4117_output: 38dd5cab
ONNXTRT_Broadcast_5673_output: 39313bed
onnx::Add_3160_output: 3bfa7f46
x.275: 3edaf89e
Gemm_5164_output: 3cefa9e6
input.1571: 3d0274b7
y.119: 3c87d855
input.1351: 3c96ea1a
onnx::MatMul_5148_output: 3bfd8293
onnx::Mul_3651_output: 3c810204
input.223: 3d17799a
dimension.31: 3c810204
onnx::Add_1518: 3d9d5a9a
ONNXTRT_Broadcast_6004_output: 3c008562
onnx::Expand_3804: 3ca8c559
y.135: 401aab14
onnx::MatMul_4591: 3d3630c5
Softmax_5744_output: 3c010204
input.635: 3edaf89e
input.1575: 3d1f7cca
attn.131: 3dd27e4a
onnx::Add_4041: 3be6d361
ONNXTRT_Broadcast_7295_output: 3b1760b9
onnx::Add_4767: 3cd0944d
ONNXTRT_Broadcast_7240_output: 3c810204
ONNXTRT_Broadcast_3807_output: 3ad8e8c4
onnx::MatMul_5028_output: 3ad9299c
onnx::Mul_3587: 3bedb651
onnx::Mul_3324: 3d0f63f3
y.55: 3d0ac25b
onnx::Mul_2038: 3c8d51d1
onnx::Add_2423_output: 3bfac1f6
input.227: 3d17799a
x.403: 3e367ed4
onnx::Add_3420: 3c37d0a0
skip.59: 3ca07120
ONNXTRT_Broadcast_7099_output: 3b1ca581
onnx::Mul_3388_output: 3b82a084
ONNXTRT_Broadcast_6418_output: 391a3d6d
onnx::Unsqueeze_1803: 3cd1d96b
ONNXTRT_Broadcast_7441_output: 38e3d024
onnx::Mul_4774: 3edc9a19
input.771: 3d1e42bd
ONNXTRT_Broadcast_6602_output: 389eb845
onnx::Mul_1796: 3fe3f11b
ONNXTRT_Broadcast_7816_output: 3c810204
y.99: 3df2007b
onnx::Shape_2889_InputLayer_output: 3df2007b
x.539: 3c872135
input.535: 3d9d70e7
2897: 3df2007b
onnx::Add_2844: 3e367ca3
input.703: 3d6f0dd1
input.231: 3d145b7a
onnx::Add_3495: 3d02bc5a
onnx::Add_1617: 3d78262a
onnx::Shape_1481: 3cd1df5d
onnx::Add_2497: 3e899a4a
onnx::Concat_4697: 3c010204
onnx::Add_3757_output: 3888cfce
ONNXTRT_Broadcast_4252_output: 38a7a8c4
onnx::Add_4503_output: 388c56bf
onnx::Mul_3672: 3ca6ad05
onnx::MatMul_4429: 3d4ff615
input.611: 3f678009
onnx::Add_4426: 3d4ad29d
input.859: 3e367ed4
ONNXTRT_Broadcast_5969_output: 3bd20fb1
onnx::Add_1612: 3da0ecff
onnx::Mul_2238: 3c008981
onnx::MatMul_5061_output: 3be0da36
onnx::MatMul_5001_output: 3bfce61a
onnx::Add_1631_output: 3beb5fe7
onnx::Shape_2889: 3df2007b
onnx::Mul_1685_output: 3b81cc69
input.235: 3e13336d
q.31: 3ccc18ac
onnx::MatMul_5155_output: 3c00c3cf
onnx::MatMul_5167_output: 3bccd75d
onnx::Add_1807_output: 3bfa31b6
input.531: 3d9d70e7
Softmax_5150_output: 3b989853
onnx::Add_4422_output: 38aa1073
2545: 3e334081
ONNXTRT_Broadcast_7583_output: 3b1c4dca
onnx::Add_2498_output: 38df3c91
input.923: 3e83dbe5
x.623: 3b7dcfac
input.1487: 4af04bbf
onnx::MatMul_5160_output: 3be1bed9
input.1091: 3c909c07
onnx::Mul_3215: 3c1f7942
ONNXTRT_Broadcast_6870_output: 39598b87
onnx::Mul_1534: 3c00f4fb
ONNXTRT_Broadcast_4107_output: 38ea7795
onnx::LSTM_5226_output: 3a9c241d
input.571: 3d781917
input.1455: 4af04bbf
x.343: 3d0fd278
input.239: 3e13336d
onnx::Add_2246: 3e126347
ONNXTRT_Broadcast_7480_output: 3c810204
input.1367: 3c991d62
Gemm_5304_output: 3c896cd0
x.535: 3c93898d
onnx::Mul_2213_output: 3b81f968
onnx::Sqrt_4411: 3d010204
input.1259: 3c755e9c
ONNXTRT_Broadcast_5820_output: 3bea9949
onnx::Mul_2125_output: 3b81dfbf
ONNXTRT_Broadcast_5826_output: 392d0bb3
ONNXTRT_Broadcast_3207_output: 3bdffebb
skip.75: 3c8d94eb
input.971: 3e044bee
onnx::MatMul_4987_output: 3bf397e4
onnx::Mul_2389_output: 3b81ec95
x.467: 3e044bee
onnx::Add_1542: 3d08c212
x.411: 3e995de7
onnx::Sigmoid_1709: 3d23700f
onnx::Concat_3683: 3cb4d9fc
onnx::MatMul_5026_output: 3bda19f8
input.647: 3f6374cf
input.243: 3e207ba3
ONNXTRT_Broadcast_2913_output: 3ad5bad1
ONNXTRT_Broadcast_7205_output: 3c6ffa69
onnx::Mul_1532: 3d4e9fcd
onnx::Mul_1773_output: 3b81e3f6
input.1271: 3cdf64b7
onnx::MatMul_5232_output: 3aeda232
onnx::Unsqueeze_2683: 3ccc2011
onnx::MatMul_5169_output: 3bfa440a
onnx::MatMul_4984_output: 3bf37c7b
input.1335: 3c544e7f
3629: 3c015a26
onnx::MatMul_4537: 3d1dd411
ONNXTRT_Broadcast_3064_output: 38f3c4e4
onnx::Concat_2949: 3ca1b923
onnx::Mul_2567_output: 3c810204
x.407: 3e334081
onnx::Add_4292_output: 3c8068fb
ONNXTRT_Broadcast_4536_output: 3c810204
input.899: 3e8cd32f
ONNXTRT_Broadcast_6897_output: 38d108a7
onnx::Add_3311_output: 38f81c1c
input.247: 3e348310
onnx::Mul_2565_output: 3b81f52f
onnx::Mul_2566: 3db3eb84
ONNXTRT_Broadcast_4534_output: 3b81f52f
ONNXTRT_Broadcast_3683_output: 3c001041
onnx::Mul_2150: 3bff7e50
attn.83: 3ee3a693
onnx::Add_2141_output: 38a49df6
input.1179: 3c84b9aa
x.355: 3e11e767
ONNXTRT_Broadcast_7589_output: 39802c49
x.463: 3e044bee
ONNXTRT_Broadcast_7908_output: 39369257
input.1247: 3d67791d
input.1243: 3d57c885
y.107: 3ca0ba2f
ONNXTRT_Broadcast_7681_output: 3925124b
ONNXTRT_Broadcast_5026_output: 3bf9a946
onnx::Add_1525_output: 38ca69bb
onnx::Add_2863_output: 3bf9a946
y.43: 3d048045
onnx::Mul_3563: 3c04b9aa
input.251: 3e05f055
k.27: 3d9de1bc
onnx::MatMul_5092_output: 3be104d2
input.967: 3e0dd416
onnx::MatMul_5141_output: 3bf15891
onnx::Unsqueeze_2859: 3ce0769a
onnx::Add_2862: 3e012a85
input.1547: 3d1a201b
ONNXTRT_Broadcast_5024_output: 3be104d2
skip.55: 3c9c141c
x.459: 3e05af5b
onnx::Add_4400_output: 3d3a3218
onnx::Mul_2854: 3c010204
onnx::Sigmoid_2853: 3e076e9e
onnx::Mul_2852: 3e24a1ef
onnx::Add_4399: 3d04ec2a
onnx::Add_2058_output: 39116a0c
attn.99: 3d75c88d
q.59: 3cf3c85e
ONNXTRT_Broadcast_2905_output: 3bbf8c9b
x.267: 3fbabece
input.255: 3e1b2c56
onnx::Mul_3674: 3bf1660a
onnx::MatMul_5260_output: 3b1a83fa
v: 3d5bf186
onnx::Add_4395_output: 38e3d024
onnx::Add_3665_output: 3911cba1
input.731: 3d6887ca
ONNXTRT_Broadcast_7439_output: 3b1d6756
ONNXTRT_Broadcast_3362_output: 390fa7c8
onnx::Mul_3774: 3d5c35f0
onnx::MatMul_5266_output: 3b21242e
input.1399: 4af04bbf
ONNXTRT_Broadcast_6118_output: 3bddde0a
input.963: 3e24a1ef
ONNXTRT_Broadcast_5001_output: 39204c85
ONNXTRT_Broadcast_6408_output: 3c810204
onnx::Add_2850_output: 39204c85
ONNXTRT_Broadcast_4999_output: 3adcf130
onnx::MatMul_5091_output: 3adcf130
onnx::Mul_2301_output: 3b81ba5c
input.959: 3e367f3c
ONNXTRT_Broadcast_4997_output: 38de69d5
onnx::Mul_3214_output: 3b822865
onnx::Add_2845_output: 38de69d5
input.259: 3e1b2c56
Softmax_5594_output: 3c010204
onnx::MatMul_5090_output: 3c0ddd81
onnx::MatMul_5089_output: 3bd6b7d6
input.955: 3e28f3b6
ONNXTRT_Broadcast_4993_output: 3920e41e
attn.75: 3d44ec37
onnx::Add_2839_output: 3920e41e
dimension.23: 3c810204
onnx::Add_3333: 3c5bf52b
onnx::Add_2838: 3e462215
ONNXTRT_Broadcast_4995_output: 3c0ddd81
ONNXTRT_Broadcast_4991_output: 3bd6b7d6
input.651: 3f8cf8fe
skip.111: 3cb73e10
ONNXTRT_Broadcast_7685_output: 3b79598d
onnx::Add_4054_output: 39598b87
onnx::Shape_1481_InputLayer_output: 3cd1df5d
ONNXTRT_Broadcast_7679_output: 3b20b41c
onnx::Concat_4689: 3c010204
input.263: 3e141b6b
onnx::Add_1870: 3f637434
onnx::Mul_2676: 3e05a118
onnx::Gemm_4070_output: 3ac23138
dimension: 3c810204
ONNXTRT_Broadcast_7103_output: 3b1bfaf2
1577: 3d17b3ca
onnx::Sigmoid_2677: 3e25d1e1
onnx::Add_4508_output: 3ba48cd1
onnx::Sigmoid_3798: 3cef87f8
onnx::Mul_4044: 3be9f7ea
onnx::Add_4367: 3cc842dd
onnx::Concat_4695: 3c010204
x.427: 3e05a083
onnx::Mul_2678: 3c010204
onnx::Concat_4642: 3d27848b
q.47: 3cbadbac
ONNXTRT_Broadcast_4101_output: 3bdec6bd
input.1131: 3cd27d24
ONNXTRT_Broadcast_3213_output: 38fc1a82
input.267: 3cd4c489
onnx::MatMul_4917_output: 3bf65728
ONNXTRT_Broadcast_1299_output: 3bf65728
onnx::Add_662: 3c574e5f
onnx::Add_663_output: 3bfa7f46
ONNXTRT_Broadcast_1301_output: 3bfa7f46
x.63: 3ca22409
input.1087: 3cbb8e21
onnx::Add_4206_output: 38b96cb7
onnx::Add_3577: 3d0e7bb5
onnx::Add_3316: 3d280c22
onnx::Add_2405_output: 38a7a8c4
ONNXTRT_Broadcast_7445_output: 3d3a3218
x.603: 3c444f8c
context.15: 3cb31daa
onnx::MatMul_5159_output: 3bddde0a
ONNXTRT_Broadcast_6257_output: 3b824ab9
input.1075: 3ce4fe74
input.1567: 3d080255
k.23: 3d3210d7
ONNXTRT_Broadcast_7672_output: 3c810204
onnx::Add_4233_output: 38a17975
onnx::Add_4373_output: 39b2e676
input.919: 3e171af8
ONNXTRT_Broadcast_4834_output: 3c810204
onnx::Mul_2743_output: 3c810204
onnx::MatMul_5262_output: 3b1e8455
input.707: 3da4fcb1
ONNXTRT_Broadcast_7395_output: 3b209476
dimension.27: 3c810204
onnx::Sqrt_4573: 3d010204
input.1407: 4af04bbf
skip.143: 3c9c9182
x.67: 3ca22409
onnx::MatMul_5054_output: 3bb752e9
input.271: 3ca22409
onnx::Shape_2801_InputLayer_output: 3e0b8a67
x.279: 3ed48f49
ONNXTRT_Broadcast_5961_output: 3c810204
onnx::Mul_3827: 3be70861
ONNXTRT_Broadcast_6420_output: 3bd04e17
onnx::Add_4368_output: 3908ada2
ONNXTRT_Broadcast_6895_output: 38c05af3
ONNXTRT_Broadcast_4695_output: 38a2e017
onnx::Add_2668: 3e76d7a2
onnx::Add_1530_output: 38e7239f
input.1255: 3d155db5
x.591: 3c6e64fc
ONNXTRT_Broadcast_5144_output: 3bdb9eb4
x.415: 3e088dc9
input.1095: 3c8c75ce
y.75: 3e059154
attn.39: 3dabefc5
onnx::Shape_2361_InputLayer_output: 3e059154
onnx::Unsqueeze_1715: 3d006b94
onnx::Concat_4683: 3c010204
2369: 3e059154
onnx::Mul_1686: 3c845b6e
input.1439: 4af04bbf
onnx::Concat_4679: 3c010204
onnx::Shape_1833_InputLayer_output: 3ed48f49
onnx::Add_3658: 3cab30fc
ONNXTRT_Broadcast_7491_output: 3b1e8455
onnx::Shape_689: 3c9d9ab4
onnx::MatMul_5083_output: 3be52954
attn.63: 3d9913b1
onnx::Add_4768_output: 3a32bfef
input.1203: 3c0ccf07
dimension.19: 3c810204
697: 3c9d9ab4
onnx::Concat_4664: 3d2a7341
onnx::Shape_689_InputLayer_output: 3c9d9ab4
y: 3c9d9ab4
onnx::MatMul_5182_output: 3b942911
onnx::Mul_2414: 3c010204
input.663: 3d1378b3
onnx::Add_1718: 3f779277
onnx::Mul_2502: 3c010204
onnx::Add_4102_output: 38acf6b7
input.1239: 3d57c885
input.1555: 3d35690d
y.35: 3cd1df5d
context.11: 3cc017cd
k.11: 3d49ca0e
onnx::Add_2404: 3e93695c
onnx::Unsqueeze_2243: 3ca8c314
ONNXTRT_Broadcast_7109_output: 39fd509f
ONNXTRT_Broadcast_7487_output: 3b1c67b1
onnx::Add_3235_output: 392c525d
onnx::Mul_4757: 3cf71d75
y.71: 3e089e62
onnx::Mul_3498: 3d032880
attn.127: 3c010204
onnx::Squeeze_4032: 3bbcccb9
onnx::MatMul_5233_output: 3ba56408
onnx::Unsqueeze_4776: 3f7c94ce
input.599: 3d4dca45
attn.163: 3c010204
onnx::Concat_4652: 3d455392
onnx::MatMul_5071_output: 3bfe643a
onnx::Add_2599_output: 3bfea259
onnx::Squeeze_3933: 3bd27b32
input.555: 3d17995d
x.627: 3b912d62
onnx::MatMul_4240: 3d33c2e7
x.71: 3c9d9ab4
onnx::Mul_717_output: 3b81ef4f
ONNXTRT_Broadcast_1405_output: 3b81ef4f
onnx::Mul_718: 3c1db79a
onnx::Mul_719_output: 3c810204
ONNXTRT_Broadcast_1407_output: 3c810204
input.275: 3c9db79a
input.811: 3ebcf296
onnx::Add_4616_output: 3ca325c4
skip.15: 3cbecd4b
onnx::MatMul_4921_output: 3bc12a4b
ONNXTRT_Broadcast_1415_output: 3bc12a4b
onnx::Add_726: 3d0fd5bc
onnx::Add_727_output: 38a3acad
ONNXTRT_Broadcast_1417_output: 38a3acad
input.279: 3d0fcaf1
input.283: 3cc35d86
onnx::MatMul_4922_output: 3bccda5d
ONNXTRT_Broadcast_1419_output: 3bccda5d
onnx::Add_732: 3d2720c3
onnx::Add_733_output: 3862c95b
ONNXTRT_Broadcast_1421_output: 3862c95b
input.287: 3d273e38
onnx::MatMul_4923_output: 3ad28efe
ONNXTRT_Broadcast_1423_output: 3ad28efe
onnx::Add_737: 3cd3bde0
onnx::Add_738_output: 390fa42c
ONNXTRT_Broadcast_1425_output: 390fa42c
input.291: 3cd378d8
onnx::Mul_3084: 3c010204
attn.135: 3d527e4a
onnx::Shape_2185: 3d0fd278
input.743: 3d2aef78
x.555: 3c87d855
onnx::Mul_3477_output: 3c810204
input.747: 3d16a07e
onnx::Mul_740: 3cd378d8
onnx::Sigmoid_741: 3cc67900
onnx::Mul_742: 3bf6a4f8
x.75: 3c6c6429
input.295: 3cc597ff
Softmax_5444_output: 3c010204
onnx::Unsqueeze_747: 3ca1b923
onnx::MatMul_4924_output: 3bf15891
ONNXTRT_Broadcast_1448_output: 3bf15891
onnx::Add_750: 3c54d5ff
onnx::Add_751_output: 3c013db1
ONNXTRT_Broadcast_1450_output: 3c013db1
x.79: 3c955e8d
1841: 3ed48f49
onnx::Gemm_4067_output: 3bbad8a7
onnx::Mul_3413: 3c00a2c4
ONNXTRT_Broadcast_7902_output: 3ba4087f
ONNXTRT_Broadcast_7541_output: 3c59a602
attn.15: 3d704765
input.1155: 3ce90f01
ONNXTRT_Broadcast_4832_output: 3b81e808
onnx::MatMul_4348: 3d246a77
onnx::Mul_2741_output: 3b81e808
onnx::Mul_2742: 3d971af8
onnx::Sigmoid_3826: 3c8b2ae7
x.439: 3e16dd2a
k.19: 3d246a77
onnx::MatMul_4999_output: 3be04022
onnx::Add_4345: 3d230310
input.695: 3d0d51d1
input.1151: 3c87585c
3194: 3ca0ba2f
onnx::Add_1701_output: 38da38fe
onnx::MatMul_5250_output: 3b20b416
onnx::Shape_3186: 3ca0ba2f
onnx::Add_1695_output: 38e4aa1b
ONNXTRT_Broadcast_3056_output: 38e4aa1b
y.127: 3c015a26
onnx::MatMul_5256_output: 3b16aa69
onnx::Mul_3747_output: 3b818e48
ONNXTRT_Broadcast_7345_output: 38c9f63b
onnx::MatMul_5259_output: 3b1d6756
Softmax_5519_output: 3c010204
x.83: 3c955e8d
skip.91: 3ca463d6
input.299: 3c955e8d
input.1387: 3d6990c3
ONNXTRT_Broadcast_7105_output: 38b96cb7
onnx::MatMul_5255_output: 3b1d35e6
input.807: 3e05ecc6
dimension.15: 3c810204
ONNXTRT_Broadcast_2746_output: 3b81e32b
attn.55: 3c010204
onnx::Add_2052: 3da4f63b
ONNXTRT_Broadcast_4279_output: 3bfe46f8
x.619: 3c458c9d
onnx::Sigmoid_3499: 3cdc931a
input.1103: 3ce19329
ONNXTRT_Broadcast_7336_output: 3c810204
onnx::Sigmoid_4045: 3bb9466b
ONNXTRT_Broadcast_3799_output: 3bc25b94
onnx::Mul_1884: 3f1cf063
onnx::Shape_2361: 3e059154
input.871: 3ed228f4
ONNXTRT_Broadcast_4099_output: 389d6b9a
ONNXTRT_Broadcast_3236_output: 3c00bfd4
input.1527: 3d159e3c
onnx::Shape_777: 3c9190b5
onnx::Mul_2303_output: 3c810204
onnx::Add_3246: 3c41922d
x.319: 3d248155
y.115: 3c872135
onnx::Mul_3302: 3c0c75ce
785: 3c9190b5
onnx::MatMul_4375: 3d3210d7
onnx::Shape_777_InputLayer_output: 3c9190b5
y.3: 3c9190b5
ONNXTRT_Broadcast_3044_output: 3b81cc69
y.47: 3f6703c8
onnx::MatMul_5047_output: 3bb8bbb5
input.1231: 3ca5f35d
x.303: 3d20753e
onnx::Add_2310: 3ec4dada
onnx::Mul_3411: 3d1e2ad8
skip.135: 3ca39a6a
ONNXTRT_Broadcast_3536_output: 3bfe33b7
ONNXTRT_Broadcast_3685_output: 3bf84a88
onnx::Add_1983_output: 3bfe33b7
skip.87: 3c9c6161
ONNXTRT_Broadcast_6259_output: 3c810204
onnx::Add_1982: 3d12f5fb
x.507: 3ca0ba2f
onnx::MatMul_4321: 3d1bed0e
onnx::MatMul_5267_output: 3b1d9ede
input.1339: 3c080a65
onnx::Unsqueeze_1979: 3cb5454d
attn.87: 3e63a693
onnx::MatMul_5022_output: 3bfa5399
onnx::Mul_1708: 3d4dca45
onnx::MatMul_5007_output: 3ad81332
input.583: 3d045b6e
onnx::Add_4318: 3d1f32ba
onnx::Shape_1745_InputLayer_output: 3f6703c8
onnx::Mul_2590: 3c010204
ONNXTRT_Broadcast_6424_output: 3ad724e6
ONNXTRT_Broadcast_7576_output: 3c810204
1753: 3f6703c8
x.87: 3c9190b5
onnx::Mul_805_output: 3b81e6cc
ONNXTRT_Broadcast_1554_output: 3b81e6cc
onnx::Mul_806: 3c125751
onnx::Mul_807_output: 3c810204
ONNXTRT_Broadcast_1556_output: 3c810204
input.303: 3c925751
ONNXTRT_Broadcast_4405_output: 38df3c91
attn.95: 3df5c88d
skip.19: 3cae7e05
onnx::MatMul_4928_output: 3bd267ad
ONNXTRT_Broadcast_1564_output: 3bd267ad
onnx::Add_814: 3d1e6414
onnx::Add_815_output: 38cdddf8
ONNXTRT_Broadcast_1566_output: 38cdddf8
input.307: 3d1e7588
input.311: 3d16d338
onnx::MatMul_4929_output: 3bd53bfe
ONNXTRT_Broadcast_1568_output: 3bd53bfe
onnx::Add_820: 3d0e1df1
onnx::Add_821_output: 38cd67b9
ONNXTRT_Broadcast_1570_output: 38cd67b9
input.315: 3d0e1b24
onnx::MatMul_4930_output: 3ad44c28
ONNXTRT_Broadcast_1572_output: 3ad44c28
onnx::Add_825: 3ce5d7d2
onnx::Add_826_output: 3917f8a1
ONNXTRT_Broadcast_1574_output: 3917f8a1
input.319: 3ce649f5
dimension.47: 3c810204
input.1191: 3d0e760f
x.323: 3d248155
onnx::Gemm_3787_output: 3bb2e404
x.339: 3d16a07e
input.1111: 3d0f63f3
onnx::Add_4314_output: 37435238
x.307: 3d20753e
ONNXTRT_Broadcast_5557_output: 3bfa7f46
onnx::Mul_828: 3ce649f5
onnx::Sigmoid_829: 3ce1c7af
onnx::Mul_830: 3bfa747d
x.91: 3c9817a9
input.323: 3cf086d4
onnx::LSTM_5205_output: 3a949d7d
onnx::Unsqueeze_835: 3cbc408a
onnx::MatMul_4931_output: 3bfd8293
ONNXTRT_Broadcast_1597_output: 3bfd8293
onnx::Add_838: 3c5bf52b
onnx::Add_839_output: 3bf089a8
ONNXTRT_Broadcast_1599_output: 3bf089a8
x.95: 3c93898d
onnx::Mul_1622: 3c00d5b1
onnx::MatMul_5012_output: 3bcde75d
onnx::Mul_2478: 3d8a2655
onnx::MatMul_5253_output: 3b1760b9
onnx::MatMul_5227_output: 3accfa88
input.1159: 3ce90f01
onnx::Sigmoid_1885: 3f32fcd6
onnx::MatMul_5287_output: 3a9af74f
onnx::Shape_3621: 3c015a26
onnx::MatMul_5013_output: 3bd4556f
input.587: 3d98956d
x.599: 3ca5f35d
ONNXTRT_Broadcast_6273_output: 39285af4
input.715: 3d6778e8
onnx::MatMul_4994_output: 3bfe3b14
onnx::MatMul_5175_output: 3ad724e6
onnx::Add_2399_output: 38afebbf
ONNXTRT_Broadcast_7151_output: 3b1c4378
onnx::Mul_3748: 3bc50ec1
onnx::Shape_1833: 3ed48f49
input.1423: 4af04bbf
k.39: 3d3cf5b4
ONNXTRT_Broadcast_6947_output: 38d7baf1
attn.159: 3d4cad32
ONNXTRT_Broadcast_7964_output: 3acfd7c5
ONNXTRT_Broadcast_6124_output: 39194c9d
onnx::Shape_1921: 3d0ac25b
ONNXTRT_Broadcast_4428_output: 3c00bd3d
x.99: 3c93898d
input.1483: 3d0050be
input.327: 3c93898d
ONNXTRT_Broadcast_2915_output: 38f90fcc
onnx::MatMul_5000_output: 3ad3485b
onnx::MatMul_5139_output: 3bbecca1
onnx::Sigmoid_2501: 3e8996a2
3281: 3c8cea79
ONNXTRT_Broadcast_7288_output: 3c810204
onnx::MatMul_5138_output: 3bc812b0
onnx::Mul_2588: 3e995de7
Gemm_5307_output: 3c9ae20c
onnx::Add_2057: 3d6b0038
ONNXTRT_Broadcast_7871_output: 3b1efd59
onnx::Concat_4693: 3c010204
x.579: 3c0ccf07
tensor.3: 3cda7d5f
onnx::Mul_3649_output: 3b81f74b
onnx::Mul_4056: 3c080a65
onnx::Add_2662: 3ea256aa
attn.187: 3c010204
onnx::Add_2849: 3e24a73e
input.1515: 3d2a7341
onnx::Shape_865: 3c872135
input.903: 3e76e297
onnx::Add_4732: 3d397ac9
output: 401aab14
ONNXTRT_Broadcast_6302_output: 3c015a26
onnx::Add_4346_output: 3a906984
input.1343: 3cb5296c
873: 3c872135
onnx::Concat_4666: 3d071d22
onnx::Shape_865_InputLayer_output: 3c872135
y.7: 3c872135
attn_output_weights: 3c010204
onnx::Add_4557_output: 388679fa
onnx::Mul_4058: 3ba9178a
ONNXTRT_Broadcast_5671_output: 3bc812b0
onnx::Add_2585: 3ea4c1cd
x.499: 3ca5f35d
input.839: 3e8ca5b4
skip.139: 3cab78ba
ONNXTRT_Broadcast_3805_output: 38a49df6
input.735: 3d88276b
x.299: 3ce619a6
onnx::Shape_2009_InputLayer_output: 3d0cf1a0
input.687: 3d092ffd
onnx::Shape_3273: 3c8cea79
attn.47: 3d9d496a
input.1347: 3d08c196
onnx::Mul_1974: 3bfd3fc6
onnx::Sigmoid_1973: 3d002092
onnx::MatMul_5035_output: 3ad8e8c4
ONNXTRT_Broadcast_6267_output: 3be02552
attn.35: 3e2befc5
onnx::Mul_2214: 3c8fa0d4
ONNXTRT_Broadcast_5681_output: 392c525d
ONNXTRT_Broadcast_7391_output: 3b205e3a
ONNXTRT_Broadcast_7251_output: 3b1bbc61
ONNXTRT_Broadcast_3809_output: 39028628
ONNXTRT_Broadcast_4236_output: 3b81ec95
onnx::Mul_1972: 3d497cf3
onnx::Sqrt_4546: 3d010204
ONNXTRT_Broadcast_7683_output: 3b1c1a92
onnx::MatMul_5252_output: 3b1bbc61
x.379: 3e53e27d
ONNXTRT_Broadcast_7249_output: 38e9dd93
ONNXTRT_Broadcast_3803_output: 3bf31384
ONNXTRT_Broadcast_7247_output: 3b198299
onnx::Add_1782: 401d6e18
x.103: 3c872135
onnx::Mul_893_output: 3b82467f
ONNXTRT_Broadcast_1703_output: 3b82467f
onnx::Mul_894: 3c075142
onnx::Mul_895_output: 3c810204
ONNXTRT_Broadcast_1705_output: 3c810204
input.331: 3c875142
onnx::MatMul_4402: 3d9de1bc
4790: 3c00a873
skip.23: 3cae023f
onnx::MatMul_4935_output: 3bf0c208
ONNXTRT_Broadcast_1713_output: 3bf0c208
onnx::Add_902: 3ce8c1c6
onnx::Add_903_output: 38a2b52c
ONNXTRT_Broadcast_1715_output: 38a2b52c
input.335: 3ce89cf5
input.339: 3ce89cf5
onnx::MatMul_4936_output: 3bd6227b
ONNXTRT_Broadcast_1717_output: 3bd6227b
onnx::Add_908: 3d0d9936
onnx::Add_909_output: 3881472a
ONNXTRT_Broadcast_1719_output: 3881472a
input.343: 3d0d971e
onnx::MatMul_4937_output: 3adb6b23
ONNXTRT_Broadcast_1721_output: 3adb6b23
onnx::Add_913: 3cd0fe39
onnx::Add_914_output: 39126f09
ONNXTRT_Broadcast_1723_output: 39126f09
input.347: 3cd17bef
onnx::Unsqueeze_2595: 3ccef7b9
ONNXTRT_Broadcast_4430_output: 3bfeff8c
onnx::Add_2140: 3d883a6c
x.383: 3e179f9e
ONNXTRT_Broadcast_7343_output: 3b1d35e6
input.1327: 3bbcccb9
onnx::Mul_916: 3cd17bef
onnx::Sigmoid_917: 3cb3de87
onnx::Mul_918: 3bf31044
x.107: 3c7d5ca6
input.351: 3cda166d
ONNXTRT_Broadcast_4248_output: 38afebbf
onnx::Unsqueeze_923: 3cab3371
onnx::MatMul_4938_output: 3c00c3cf
ONNXTRT_Broadcast_1746_output: 3c00c3cf
onnx::Add_926: 3c5f7204
onnx::Add_927_output: 3c008562
ONNXTRT_Broadcast_1748_output: 3c008562
x.111: 3ca85004
x.523: 3c8cea79
onnx::Mul_3776: 3bff7a71
onnx::Sigmoid_3325: 3cd5de22
onnx::Add_3572_output: 391593da
attn.27: 3deb8b9f
onnx::Add_1700: 3da5356f
dimension.7: 3c810204
x.575: 3c9fce2f
onnx::Sigmoid_1797: 3ff4e329
onnx::Mul_1798: 3c010204
onnx::MatMul_5249_output: 3b1e02ea
input.591: 3d84c805
onnx::Add_4733_output: 39369257
input.1359: 3c898bd2
lstm_output_decoder: 3d08c196
ONNXTRT_Broadcast_5828_output: 3ada7865
input.1447: 4af04bbf
onnx::Add_3398_output: 394e7a79
ONNXTRT_Broadcast_3981_output: 3c004b97
ONNXTRT_Broadcast_3058_output: 3be04022
onnx::MatMul_5056_output: 3ad275b1
onnx::MatMul_5040_output: 3bdd0a54
y.91: 3e16dd2a
onnx::Concat_4687: 3c010204
input.1059: 3cd4c489
onnx::Add_4260_output: 38abbeaf
onnx::MatMul_5029_output: 3c001041
ONNXTRT_Broadcast_4579_output: 3bfea259
x.115: 3ca85004
onnx::Add_3659_output: 391a3d6d
input.355: 3ca85004
ONNXTRT_Broadcast_7906_output: 3acd40b9
Softmax_5494_output: 3c010204
attn.119: 3dd7c092
onnx::Mul_2236: 3d3fdf02
ONNXTRT_Broadcast_3658_output: 3ad9299c
input.1083: 3cabeb1c
ONNXTRT_Broadcast_4089_output: 3c810204
onnx::MatMul_5145_output: 3bea9949
ONNXTRT_Broadcast_7898_output: 3baf5a85
onnx::Add_2071_output: 3bf84a88
onnx::Add_3578_output: 39285af4
onnx::Add_4313: 3cbd6c1c
ONNXTRT_ShapeShuffle_6636_output: 3ca8c559
input.1523: 3d071d22
input.803: 3e0cf063
onnx::Add_3496_output: 39744541
onnx::Shape_3621_InputLayer_output: 3c015a26
(Unnamed Layer* 8309) [Reduce]_output: 3afdcf6a
input.1167: 3d032880
ONNXTRT_Broadcast_5663_output: 3c810204
onnx::Transpose_3937: 3bd27b32
x.371: 3e0cf063
ONNXTRT_Broadcast_6893_output: 3897e97f
attn.19: 3c010204
onnx::Add_2487_output: 38c604de
ONNXTRT_Broadcast_7635_output: 3b1cb897
onnx::Mul_1510: 3c5273ee
onnx::Shape_953: 3c95ead5
onnx::Add_2756: 3eb8f2e2
attn.139: 3c010204
skip.67: 3cb1fb84
onnx::Mul_3303_output: 3c810204
onnx::Mul_2479_output: 3c810204
961: 3c95ead5
head: 3d455392
onnx::Shape_953_InputLayer_output: 3c95ead5
y.11: 3c95ead5
input.1275: 3cdf0c10
onnx::Add_1806: 3edc28eb
k.3: 3d33c2e7
onnx::Shape_2537: 3e334081
ONNXTRT_Broadcast_7347_output: 3b16aa69
x.643: 3cc0caad
onnx::Add_2146_output: 39028628
onnx::Add_2145: 3d1c753d
ONNXTRT_Broadcast_3509_output: 3ad40f89
input.1139: 3d3c88ff
onnx::Gemm_3792_output: 389eb845
onnx::Add_4454_output: 3c59a602
attn.23: 3e6b8b9f
input.683: 3d497cf3
onnx::MatMul_4267: 3d26bba5
ONNXTRT_Broadcast_3511_output: 38e77f84
onnx::Add_1970_output: 38e77f84
input.987: 3e941320
input.627: 3ff4e329
onnx::MatMul_5070_output: 3ad5cbdc
input.679: 3d46e68a
ONNXTRT_Broadcast_3507_output: 389b2561
onnx::MatMul_5021_output: 3ad40f89
3727: 3c444f8c
ONNXTRT_Broadcast_5679_output: 3adbdfce
onnx::Add_1965_output: 389b2561
onnx::Add_1969: 3d49954a
onnx::Add_1964: 3d46c03f
ONNXTRT_Broadcast_3505_output: 3bcf62e8
onnx::Add_4264: 3d19ac6f
onnx::MatMul_5020_output: 3bcf62e8
onnx::Mul_3475_output: 3b82784f
q.7: 3cffe9d5
ONNXTRT_Broadcast_5677_output: 3903c3b3
onnx::Add_4259: 3cffab89
input.579: 3d0c1a89
ONNXTRT_Broadcast_7199_output: 3b1e02ea
lstm_output_encoder: 3cf06ae7
onnx::Add_4507: 3d25085c
onnx::Mul_2326: 3c010204
x.119: 3c95ead5
onnx::Mul_981_output: 3b823bdc
ONNXTRT_Broadcast_1852_output: 3b823bdc
onnx::Mul_982: 3c160d48
onnx::Mul_983_output: 3c810204
ONNXTRT_Broadcast_1854_output: 3c810204
input.359: 3c960d48
onnx::MatMul_5231_output: 3bacfd81
x.211: 3d058422
skip.27: 3ca172d3
onnx::MatMul_4942_output: 3bdcd7e8
ONNXTRT_Broadcast_1862_output: 3bdcd7e8
onnx::Add_990: 3cf3b5c3
onnx::Add_991_output: 390d0104
ONNXTRT_Broadcast_1864_output: 390d0104
input.363: 3cf3d99e
input.367: 3ce2d31d
onnx::MatMul_4943_output: 3bdcef09
ONNXTRT_Broadcast_1866_output: 3bdcef09
onnx::Add_996: 3d34b430
onnx::Add_997_output: 3907c969
ONNXTRT_Broadcast_1868_output: 3907c969
input.371: 3d3520a2
onnx::MatMul_4944_output: 3ad8ef57
ONNXTRT_Broadcast_1870_output: 3ad8ef57
onnx::Add_1001: 3ce2918a
onnx::Add_1002_output: 3915e02e
ONNXTRT_Broadcast_1872_output: 3915e02e
input.375: 3ce3300c
ONNXTRT_Broadcast_7733_output: 3a17f481
onnx::Add_2687_output: 3bf25a79
onnx::MatMul_5027_output: 3bf56398
Softmax_5469_output: 3c010204
onnx::Add_2135_output: 38a7613e
onnx::Add_2751_output: 38e14ca5
onnx::Mul_1004: 3cdfd744
onnx::Sigmoid_1005: 3ce3300c
onnx::Mul_1006: 3bfa9cee
x.123: 3cd64918
input.379: 3d11f6cb
ONNXTRT_Broadcast_7900_output: 3905abe2
dimension.59: 3c810204
onnx::Unsqueeze_1011: 3cd524b4
onnx::MatMul_4945_output: 3bfdcd5b
ONNXTRT_Broadcast_1895_output: 3bfdcd5b
onnx::Add_1014: 3c352783
onnx::Add_1015_output: 3bf9bdad
ONNXTRT_Broadcast_1897_output: 3bf9bdad
x.127: 3c8a4645
input.1451: 3d217f04
ONNXTRT_Broadcast_2940_output: 3beb5fe7
ONNXTRT_Broadcast_7192_output: 3c810204
onnx::Add_3408: 3d3c2f5c
onnx::Add_3595_output: 3c015a26
onnx::Sqrt_4249: 3d010204
input.1215: 3cabac0a
onnx::Shape_3719_InputLayer_output: 3c444f8c
onnx::Add_4530_output: 3925124b
onnx::Add_4111: 3d8875e5
2721: 3e16dd2a
ONNXTRT_Broadcast_7537_output: 38ac73bd
onnx::Unsqueeze_3679: 3cbb2e22
skip.147: 3c8d0201
ONNXTRT_Broadcast_2907_output: 38b28d97
onnx::Mul_1620: 3d781917
onnx::Add_4394: 3cdb4b79
onnx::Shape_2713: 3e16dd2a
onnx::Add_2047_output: 38b8f27d
onnx::Add_2321: 3ec58c9e
onnx::MatMul_5179_output: 3b4cff93
ONNXTRT_Broadcast_3652_output: 38b8f27d
input.1463: 4af04bbf
x.615: 3c6d908a
x.483: 3f78a9fd
attn.115: 3c010204
onnx::Gemm_3816_output: 38c808d8
onnx::MatMul_5173_output: 3bcbc1a6
onnx::Mul_3301_output: 3b822850
x.131: 3c8a4645
onnx::Shape_1569_InputLayer_output: 3d17b3ca
input.383: 3c8a4645
input.727: 3d6887ca
input.1107: 3d2888c1
ONNXTRT_Broadcast_6941_output: 38acf6b7
onnx::Mul_1861_output: 3b81ee25
x.631: 3c392326
onnx::MatMul_5085_output: 3be30fe6
ONNXTRT_Broadcast_4703_output: 38c767ee
onnx::Unsqueeze_3505: 3cb294a1
ONNXTRT_Broadcast_7299_output: 3b194510
onnx::Add_2510: 3e3422d5
sparse_weights.3: 3b9af528
onnx::Unsqueeze_2419: 3ce10fb4
onnx::Unsqueeze_1627: 3cbc9b47
input.563: 3d512b92
onnx::Add_1877_output: 38e09210
onnx::Shape_2185_InputLayer_output: 3d0fd278
input.1227: 3cd6fc5c
x.231: 3d17b3ca
x.419: 3e088dc9
x.651: 3ccbb964
input.595: 3da52394
ONNXTRT_Broadcast_7384_output: 3c810204
ONNXTRT_Broadcast_3211_output: 3ad81332
attn.11: 3df04765
x.563: 3c888c3e
onnx::Shape_1041: 3c842c52
onnx::Mul_4735: 3d393f91
onnx::MatMul_5281_output: 3acd40b9
onnx::Add_4237: 3d3435cc
attn.103: 3c010204
q.3: 3cd5ee0f
onnx::Sigmoid_4736: 3d1ac4d1
ONNXTRT_Broadcast_7153_output: 38a17975
1049: 3c842c52
onnx::Add_2316: 3edf61c9
onnx::Shape_1041_InputLayer_output: 3c842c52
y.15: 3c842c52
ONNXTRT_Broadcast_6300_output: 3bfa440a
y.67: 3d0fd278
onnx::Unsqueeze_2067: 3ceb2fc4
skip.99: 3cb3ef08
ONNXTRT_Broadcast_3503_output: 38aec255
onnx::Add_1958: 3d8299d4
ONNXTRT_Broadcast_3501_output: 3bddde4f
onnx::Add_1959_output: 38aec255
input.675: 3d5c119e
onnx::MatMul_5174_output: 3bd04e17
y.131: 3c444f8c
input.671: 3d828fc9
skip.71: 3cb41ef0
input.1459: 3d1985a7
ONNXTRT_Broadcast_6120_output: 3909d9ab
onnx::Sigmoid_3412: 3d3c88ff
input.1579: 3cf4c5df
attn.79: 3c010204
input.667: 3d0b17a1
ONNXTRT_Broadcast_3493_output: 3c810204
ONNXTRT_Broadcast_3789_output: 3b81dfbf
ONNXTRT_Broadcast_6271_output: 3bccd75d
onnx::Mul_1951_output: 3c810204
onnx::Sqrt_4222: 3d010204
input.1051: 3c367b23
onnx::Add_3229: 3cc69ae2
attn.51: 3d1d496a
onnx::Shape_1745: 3f6703c8
ONNXTRT_Broadcast_7768_output: 3c810204
x.135: 3c842c52
onnx::Mul_1069_output: 3b823a4e
ONNXTRT_Broadcast_2001_output: 3b823a4e
onnx::Mul_1070: 3c0420cd
onnx::Mul_1071_output: 3c810204
ONNXTRT_Broadcast_2003_output: 3c810204
input.387: 3c8420cd
input.523: 3d058422
ONNXTRT_Broadcast_7539_output: 3b1d3e8d
skip.31: 3ca6397e
onnx::MatMul_4949_output: 3bcb51b8
ONNXTRT_Broadcast_2011_output: 3bcb51b8
onnx::Add_1078: 3d027dba
onnx::Add_1079_output: 38ed7002
ONNXTRT_Broadcast_2013_output: 38ed7002
input.391: 3d029dfc
input.395: 3d029dfc
onnx::MatMul_4950_output: 3bf164db
ONNXTRT_Broadcast_2015_output: 3bf164db
onnx::Add_1084: 3d092e3d
onnx::Add_1085_output: 391176f6
ONNXTRT_Broadcast_2017_output: 391176f6
input.399: 3d09272f
onnx::MatMul_4951_output: 3ad99077
ONNXTRT_Broadcast_2019_output: 3ad99077
onnx::Add_1089: 3ceb78a5
onnx::Add_1090_output: 38e077be
ONNXTRT_Broadcast_2021_output: 38e077be
input.403: 3cec2ad2
onnx::MatMul_5280_output: 3ba4087f
onnx::Shape_2625: 3e07c988
input.699: 3d8d6501
input.1183: 3ced5f00
onnx::Add_3224_output: 39313bed
onnx::Shape_1569: 3d17b3ca
onnx::Mul_1092: 3cbb5a47
onnx::Sigmoid_1093: 3cec2ad2
onnx::Mul_1094: 3bfb8d26
x.139: 3ca88b3e
input.407: 3cf033ed
q.23: 3cc95438
input.795: 3ec590db
onnx::Unsqueeze_1099: 3cc1447a
onnx::MatMul_4952_output: 3bfa440a
ONNXTRT_Broadcast_2044_output: 3bfa440a
onnx::Add_1102: 3c30fff7
onnx::Add_1103_output: 3c015a26
ONNXTRT_Broadcast_2046_output: 3c015a26
x.143: 3c988931
skip.115: 3cb06d1e
input.643: 3f6374cf
onnx::MatMul_5154_output: 3ae3b863
input.559: 3d512b92
input.1519: 4af04bbf
ONNXTRT_Broadcast_3954_output: 38b08fc8
input.1431: 4af04bbf
ONNXTRT_Broadcast_7301_output: 3a644df4
onnx::Add_3571: 3cee3cd0
onnx::Add_2222: 3d87396d
ONNXTRT_Broadcast_3087_output: 3bfce61a
onnx::Add_3075_output: 3882d0e1
onnx::Add_2223_output: 38a2261e
onnx::Add_2228: 3d8b2c93
onnx::Sigmoid_3586: 3cab411d
input.755: 3d874321
ONNXTRT_Broadcast_6561_output: 3b4cff93
onnx::MatMul_5286_output: 3acfd7c5
ONNXTRT_Broadcast_6563_output: 3888cfce
input.763: 3d8b14d2
ONNXTRT_Broadcast_6571_output: 3b942911
ONNXTRT_Broadcast_3950_output: 38a2261e
input.1127: 3cd27d24
onnx::Add_2598: 3e040eb2
skip.79: 3ccaa8c7
onnx::Add_4754: 3d025e9e
onnx::Mul_2062: 3c00eb71
x.147: 3c988931
input.411: 3c988931
x.503: 3ca5f35d
onnx::Sigmoid_4074: 3c850915
input.575: 3d3874da
attn.167: 3e18b226
input.887: 3e088dc9
ONNXTRT_Broadcast_3654_output: 3bf56398
onnx::Mul_2391_output: 3c810204
input.863: 3e33eb84
onnx::Add_4340: 3cef07bf
input.1067: 3c9f7942
x.547: 3c94088f
input.1099: 3ce19329
onnx::Mul_3564_output: 3c810204
onnx::Mul_3749_output: 3c810204
onnx::Mul_4759: 3bf62936
onnx::MatMul_5254_output: 3b194510
k: 3d2241be
onnx::MatMul_4618: 3d76e0df
onnx::Shape_1129: 3c7a2626
q.19: 3cef9482
ONNXTRT_Broadcast_3385_output: 3bf801e4
onnx::Add_4211_output: 39fd509f
x.263: 3f6703c8
onnx::Add_4210: 3d231f59
onnx::Concat_4638: 3cedbbce
onnx::Add_1706_output: 38f3c4e4
1137: 3c7a2626
onnx::Concat_4669: 3c010204
onnx::Shape_1129_InputLayer_output: 3c7a2626
y.19: 3c7a2626
ONNXTRT_Broadcast_6422_output: 3911cba1
onnx::MatMul_5251_output: 3b198299
ONNXTRT_Broadcast_7107_output: 3b1dc7f5
onnx::Add_4778: 3f7c94ce
x.311: 3d0cf1a0
ONNXTRT_Broadcast_3940_output: 3c810204
q: 3d21460b
onnx::Mul_1950: 3c8b17a1
onnx::Add_4205: 3d215a61
x.295: 3d0ac25b
ONNXTRT_Broadcast_3491_output: 3b81cb73
ONNXTRT_Broadcast_6651_output: 38ac1968
onnx::Sqrt_4276: 3d010204
onnx::Mul_1949_output: 3b81cb73
onnx::MatMul_5245_output: 3b1bfaf2
ONNXTRT_Broadcast_2938_output: 3bfe3b14
ONNXTRT_Broadcast_6416_output: 3bcbc1a6
ONNXTRT_Broadcast_7101_output: 38684f55
(Unnamed Layer* 8144) [Reduce]_output: 3b092c0c
onnx::Add_4427_output: 3aa46f04
input.895: 3ea2524e
onnx::MatMul_5076_output: 3be2fcf5
ONNXTRT_Broadcast_3650_output: 3bda19f8
onnx::Add_4341_output: 38c9f63b
input.1115: 3ccda281
onnx::Add_4319_output: 3a644df4
onnx::Add_1529: 3d7cf02c
onnx::Mul_1599_output: 3c810204
input.623: 406ca59b
onnx::Add_2669_output: 3862554d
onnx::Mul_4075: 3be4e910
onnx::Sqrt_4438: 3d010204
onnx::Add_4200: 3d5bb772
input.1319: 3ca47c70
x.151: 3c7a2626
onnx::Mul_1157_output: 3b822af9
ONNXTRT_Broadcast_2150_output: 3b822af9
onnx::Mul_1158: 3bfa68d7
onnx::Mul_1159_output: 3c810204
ONNXTRT_Broadcast_2152_output: 3c810204
input.415: 3c7a68d7
onnx::Mul_4711: 3cec8077
input.1543: 3d0dab5f
skip.35: 3ca0f782
onnx::MatMul_4956_output: 3beda789
ONNXTRT_Broadcast_2160_output: 3beda789
onnx::Add_1166: 3d1272a7
onnx::Add_1167_output: 389a91b2
ONNXTRT_Broadcast_2162_output: 389a91b2
input.419: 3d1263f4
input.423: 3cf8eaea
onnx::MatMul_4957_output: 3be82bfd
ONNXTRT_Broadcast_2164_output: 3be82bfd
onnx::Add_1172: 3d4768ad
onnx::Add_1173_output: 38d39bec
ONNXTRT_Broadcast_2166_output: 38d39bec
input.427: 3d473f4d
onnx::MatMul_4958_output: 3ad7dcab
ONNXTRT_Broadcast_2168_output: 3ad7dcab
onnx::Add_1177: 3cd333b5
onnx::Add_1178_output: 39016065
ONNXTRT_Broadcast_2170_output: 39016065
input.431: 3cd35581
2633: 3e07c988
ONNXTRT_Broadcast_4105_output: 3ad4e973
onnx::Add_4583: 3cf9de9b
onnx::Sigmoid_4758: 3d0274b7
ONNXTRT_Broadcast_6153_output: 3bf9bdad
sparse_weights.7: 3b989853
onnx::Shape_2625_InputLayer_output: 3e07c988
onnx::MatMul_5279_output: 3baf5a85
onnx::Mul_1180: 3cd35581
onnx::Sigmoid_1181: 3ca62b64
onnx::Mul_1182: 3bea5e63
x.155: 3c9ebba9
input.435: 3cdcb97c
onnx::Unsqueeze_1187: 3cb15403
onnx::MatMul_4959_output: 3be47565
ONNXTRT_Broadcast_2193_output: 3be47565
onnx::Add_1190: 3d97389e
onnx::Add_1191_output: 3c0192e6
ONNXTRT_Broadcast_2195_output: 3c0192e6
x.159: 3d9fe562
input.1291: 3ca506c7
ONNXTRT_Broadcast_5977_output: 3ae3b863
context.7: 3cea8e3e
input.1063: 3ca5f35d
ONNXTRT_Broadcast_3956_output: 3add5b3f
onnx::MatMul_5042_output: 3add5b3f
input.843: 3e8ca5b4
onnx::MatMul_5181_output: 3c4aa167
ONNXTRT_Broadcast_6843_output: 3accfa88
onnx::MatMul_5015_output: 3bf801e4
onnx::Add_2233: 3d48cecb
ONNXTRT_Broadcast_6151_output: 3bfdcd5b
input.1395: 3d099798
input.1079: 3cc60073
input.883: 3e962705
onnx::MatMul_5258_output: 3b209476
ONNXTRT_Broadcast_3952_output: 3bc4054f
input.1171: 3cccbccf
ONNXTRT_Broadcast_6567_output: 3c4aa167
Gemm_5187_output: 3cd302ac
x.519: 3c909c07
attn.175: 3c010204
input.835: 3e0a2655
x.331: 3d10d8a8
onnx::MatMul_5274_output: 3b2055a9
x.163: 3d9fe562
input.439: 3d9fe562
ONNXTRT_Broadcast_4699_output: 3862554d
x.235: 3d33015d
input.723: 3d136219
ONNXTRT_Broadcast_5706_output: 3c013db1
ONNXTRT_Broadcast_4132_output: 3c0044f1
dimension.3: 3c810204
input.1443: 3d25565c
onnx::Sigmoid_2237: 3d486d6f
1929: 3d0ac25b
onnx::Add_4611_output: 38b4fe08
y.63: 3d14192d
onnx::MatMul_5057_output: 3bfe46f8
ONNXTRT_Broadcast_4254_output: 3ad275b1
ONNXTRT_Broadcast_6551_output: 3b818e48
onnx::Shape_3360_InputLayer_output: 3c872135
onnx::Add_2334: 3e0e2e06
onnx::Add_2335_output: 3c0044f1
onnx::Shape_1657: 3d048045
input.711: 3d6b0aa6
ONNXTRT_Broadcast_4130_output: 3bf936f6
onnx::Unsqueeze_3782: 3b989853
onnx::MatMul_5050_output: 3bf936f6
x.367: 3e0cf063
onnx::Unsqueeze_2331: 3d0e275a
x.515: 3c909c07
(Unnamed Layer* 8308) [Shuffle]_output: 3a9c241d
onnx::Shape_1217: 3d9fe562
ONNXTRT_Broadcast_2791_output: 3bfc4649
onnx::Mul_3797: 3cba08fc
onnx::Sqrt_4357: 3d010204
3368: 3c872135
ONNXTRT_Broadcast_4087_output: 3b81ba5c
1225: 3d9fe562
onnx::Concat_4681: 3c010204
onnx::Shape_1217_InputLayer_output: 3d9fe562
y.23: 3d9fe562
ONNXTRT_Broadcast_5661_output: 3b822865
ONNXTRT_Broadcast_5812_output: 3c810204
onnx::MatMul_5063_output: 3ad1c6b3
ONNXTRT_Broadcast_7873_output: 3ace3edf
ONNXTRT_Broadcast_4550_output: 38c921a4
onnx::Mul_3239: 3be0c136
x.255: 3f78a9fd
onnx::MatMul_5147_output: 3ada7865
ONNXTRT_Broadcast_7633_output: 388c56bf
onnx::Gemm_3822_output: 3ac3e8ad
input.619: 401d6f70
onnx::MatMul_4564: 3d1ccf95
onnx::Add_1894: 3d13a0fe
onnx::Add_1895_output: 3bebe0e2
input.1471: 4af04bbf
onnx::Gemm_3794_output: 3ac51e50
ONNXTRT_Broadcast_3387_output: 3bebe0e2
onnx::MatMul_5078_output: 3c00a5de
onnx::Mul_2148: 3d1c152a
x.287: 3d1378b3
onnx::Add_4421: 3ccbc847
onnx::Expand_3832: 3cda7d5f
ONNXTRT_Broadcast_7875_output: 3935f098
input.1507: 3d31b7ff
input.1331: 3be9f7ea
onnx::MatMul_5272_output: 3b1df932
ONNXTRT_Broadcast_3209_output: 38c3e5bb
onnx::Shape_3534: 3c83db9c
onnx::Add_3664: 3cd085c9
onnx::Mul_1863_output: 3c810204
onnx::Add_3484: 3ce8faf0
x.167: 3d9fe562
onnx::Mul_1245_output: 3b820727
ONNXTRT_Broadcast_2299_output: 3b820727
onnx::Mul_1246: 3d2072e2
onnx::Mul_1247_output: 3c810204
ONNXTRT_Broadcast_2301_output: 3c810204
input.443: 3da072e2
ONNXTRT_Broadcast_2789_output: 3bf397e4
attn.31: 3c010204
skip.39: 3cc9f5d2
onnx::MatMul_4963_output: 3bd27ea2
ONNXTRT_Broadcast_2309_output: 3bd27ea2
onnx::Add_1254: 3e1766d8
onnx::Add_1255_output: 390499ab
ONNXTRT_Broadcast_2311_output: 390499ab
input.447: 3e177007
input.451: 3e177007
onnx::MatMul_4964_output: 3be4bddc
ONNXTRT_Broadcast_2313_output: 3be4bddc
onnx::Add_1260: 3e2a15d1
onnx::Add_1261_output: 38e776b1
ONNXTRT_Broadcast_2315_output: 38e776b1
input.455: 3e2a1531
onnx::MatMul_4965_output: 3adce3fd
ONNXTRT_Broadcast_2317_output: 3adce3fd
onnx::Add_1265: 3df8fe1e
onnx::Add_1266_output: 39511b72
ONNXTRT_Broadcast_2319_output: 39511b72
input.459: 3df8da09
ONNXTRT_Broadcast_3062_output: 3ad3485b
ONNXTRT_Broadcast_6604_output: 39115dde
dimension.55: 3c810204
y.87: 3e07c988
onnx::Add_4448: 3ce3df30
onnx::Add_1705: 3d4dd062
onnx::Shape_2449_InputLayer_output: 3e0a2c23
onnx::Mul_1268: 3dda2c04
onnx::Sigmoid_1269: 3df8da09
onnx::Mul_1270: 3c0101c7
x.171: 3dcdbb28
input.463: 3dc888e7
onnx::Concat_4699: 3c010204
onnx::Unsqueeze_1275: 3cc5b0cd
onnx::MatMul_4966_output: 3bf6fdf6
ONNXTRT_Broadcast_2342_output: 3bf6fdf6
onnx::Add_1278: 3d7b963d
onnx::Add_1279_output: 3bfe9013
ONNXTRT_Broadcast_2344_output: 3bfe9013
x.175: 3d70352c
ONNXTRT_Broadcast_3356_output: 3bd4556f
onnx::Sigmoid_3238: 3cabeb1c
ONNXTRT_Broadcast_6949_output: 3ac88051
onnx::Add_2234_output: 38e100a9
onnx::Sqrt_4330: 3d010204
ONNXTRT_Broadcast_4701_output: 3ad839f6
ONNXTRT_Broadcast_3958_output: 38e100a9
onnx::Expand_4082: 3cc017cd
ONNXTRT_Broadcast_6108_output: 3b82784f
input.915: 3e1fe6a8
onnx::MatMul_5043_output: 3c004b97
ONNXTRT_Broadcast_3344_output: 3c810204
onnx::Mul_2390: 3d85ecc6
onnx::MatMul_5041_output: 3bc4054f
x.435: 3e1fe6a8
onnx::Mul_4737: 3bffe82a
Softmax_5544_output: 3c010204
ONNXTRT_Broadcast_5855_output: 3bf089a8
input.1211: 3cabac0a
ONNXTRT_Broadcast_7637_output: 3ba48cd1
onnx::Shape_3360: 3c872135
ONNXTRT_Broadcast_5277_output: 3c810204
onnx::Add_3310: 3ce113de
x.583: 3c0ccf07
attn.59: 3e1913b1
input.547: 3d2b9cb5
onnx::Add_2053_output: 38adf84f
input.1263: 3ca47c70
ONNXTRT_Broadcast_3195_output: 3c810204
ONNXTRT_Broadcast_4387_output: 3c810204
input.831: 3e179f9e
ONNXTRT_Broadcast_5810_output: 3b822850
x.567: 3c888c3e
x.179: 3d70352c
input.467: 3d70352c
onnx::Add_1606: 3d50e0d5
ONNXTRT_Broadcast_2909_output: 3bf5560e
input.799: 3ec162d9
ONNXTRT_Broadcast_6600_output: 38e929d0
ONNXTRT_Broadcast_5853_output: 3bfd8293
input.1207: 3c01fd8c
x.363: 3ec07db5
onnx::Sigmoid_2325: 3ec18c78
ONNXTRT_Broadcast_6406_output: 3b81f74b
input.1287: 3ca506c7
onnx::Add_3230_output: 3903c3b3
input.815: 3e7e6074
onnx::Mul_2324: 3ec590db
ONNXTRT_Broadcast_4097_output: 3bb8bbb5
onnx::Mul_3799: 3bfbdf3c
ONNXTRT_Broadcast_3642_output: 3c810204
onnx::Add_4287_output: 38e9dd93
onnx::Add_2757_output: 38992144
onnx::Shape_1305: 3d5c5f4c
ONNXTRT_Broadcast_5704_output: 3bf15891
onnx::MatMul_5082_output: 3bd41402
onnx::Add_1630: 3d0ebaed
ONNXTRT_Broadcast_4246_output: 3bb752e9
onnx::Mul_2060: 3d4e2be3
onnx::MatMul_5263_output: 3b1abafc
skip.131: 3cb73331
1313: 3d5c5f4c
onnx::Concat_4671: 3c010204
onnx::Shape_1305_InputLayer_output: 3d5c5f4c
y.27: 3d5c5f4c
input.1195: 3cc5a2a0
onnx::Concat_4673: 3c010204
onnx::MatMul_4456: 3d44b219
y.83: 3e334081
ONNXTRT_Broadcast_3983_output: 3c0050aa
input.1135: 3d44cf55
onnx::Mul_1687_output: 3c810204
Softmax_5569_output: 3c010204
ONNXTRT_Broadcast_4726_output: 3c00a5de
x.351: 3e11e767
onnx::Add_3594: 3a48366f
ONNXTRT_Broadcast_5822_output: 38f81c1c
onnx::Mul_3390_output: 3c810204
ONNXTRT_Broadcast_3193_output: 3b81e3f6
onnx::MatMul_5006_output: 3bdffebb
x.543: 3cc66330
onnx::Mul_2654: 3d8817c8
ONNXTRT_Broadcast_4683_output: 3b81b242
onnx::Add_2410_output: 38cb942c
onnx::Concat_4646: 3d25565c
onnx::Add_2322_output: 38ea7795
ONNXTRT_Broadcast_5824_output: 3beba346
x.423: 3e07c988
ONNXTRT_Broadcast_7393_output: 3908ada2
ONNXTRT_Broadcast_5675_output: 3bbecca1
onnx::Mul_2655_output: 3c810204
onnx::Add_2229_output: 38b08fc8
onnx::Add_1789_output: 38c3e5bb
onnx::Shape_3447_InputLayer_output: 3c87d855
onnx::Add_2575_output: 38b550da
input.1303: 3c91cd61
onnx::MatMul_5261_output: 3b1c67b1
onnx::Mul_1862: 3e561458
x.183: 3d5c5f4c
onnx::Mul_1333_output: 3b81cc32
ONNXTRT_Broadcast_2448_output: 3b81cc32
onnx::Mul_1334: 3cdc4c07
onnx::Mul_1335_output: 3c810204
ONNXTRT_Broadcast_2450_output: 3c810204
input.471: 3d5c4c07
outputs.7: 3c80a80b
1665: 3d048045
skip.43: 3cc2fec3
onnx::MatMul_4970_output: 3be8744f
ONNXTRT_Broadcast_2458_output: 3be8744f
onnx::Add_1342: 3df73430
onnx::Add_1343_output: 38c3836a
ONNXTRT_Broadcast_2460_output: 38c3836a
input.475: 3df7357c
input.479: 3df7357c
onnx::MatMul_4971_output: 3bf81806
ONNXTRT_Broadcast_2462_output: 3bf81806
onnx::Add_1348: 3e2f7cd5
onnx::Add_1349_output: 38f59066
ONNXTRT_Broadcast_2464_output: 38f59066
input.483: 3e2f7bf5
onnx::MatMul_4972_output: 3ad933ad
ONNXTRT_Broadcast_2466_output: 3ad933ad
onnx::Add_1353: 3e0dee06
onnx::Add_1354_output: 391e8904
ONNXTRT_Broadcast_2468_output: 391e8904
input.487: 3e0e060a
var_outputs.7: 3ce90546
ONNXTRT_Broadcast_3660_output: 39116a0c
2193: 3d0fd278
onnx::Mul_1356: 3e0e060a
onnx::Sigmoid_1357: 3dd4917c
onnx::Mul_1358: 3c0101f4
x.187: 3e0c0c93
input.491: 3e071656
onnx::Sqrt_4303: 3d010204
ONNXTRT_Broadcast_6275_output: 3add4c75
onnx::Unsqueeze_1363: 3ce79405
onnx::MatMul_4973_output: 3bf8ecad
ONNXTRT_Broadcast_2491_output: 3bf8ecad
onnx::Add_1366: 3cea145e
onnx::Add_1367_output: 3c004d1d
ONNXTRT_Broadcast_2493_output: 3c004d1d
x.191: 3d0bd7f2
x.347: 3d260046
onnx::Gemm_3788_output: 38e929d0
input.631: 3fba2b45
onnx::Add_3669: 3cacd55d
ONNXTRT_Broadcast_4552_output: 3ad5cbdc
x.551: 3c94088f
onnx::Gemm_3823_output: 38ce6c60
onnx::Add_2586_output: 3906ac24
2105: 3d14192d
attn.43: 3c010204
ONNXTRT_Broadcast_6569_output: 38d4353a
onnx::Add_3767_output: 38d4353a
ONNXTRT_Broadcast_4554_output: 3906ac24
onnx::Add_3334_output: 3bf089a8
attn_input: 3d0a2329
ONNXTRT_Broadcast_6868_output: 3accfa88
input.1411: 3cedbbce
onnx::Sigmoid_2589: 3ea4c182
input.759: 3d874321
input.615: 401d6f70
onnx::Sigmoid_2413: 3e60a526
input.951: 3e462242
x.387: 3e179f9e
onnx::Add_4722_output: 3905abe2
x.531: 3c93898d
ONNXTRT_Broadcast_4385_output: 3b819fff
x.639: 3d404d8b
onnx::Gemm_3820_output: 38ac1968
x.195: 3d0bd7f2
input.607: 3f78a9fd
input.495: 3d0bd7f2
onnx::MatMul_5105_output: 3b13e424
ONNXTRT_ShapeShuffle_6685_output: 3cda7d5f
ONNXTRT_Broadcast_3791_output: 3c810204
x.559: 3cfe0110
onnx::Mul_4119: 3d6990c3
ONNXTRT_Broadcast_3640_output: 3b822984
onnx::Sigmoid_1533: 3d7cc3fb
onnx::Gemm_4064_output: 3897e97f
onnx::Mul_2127_output: 3c810204
onnx::Mul_2126: 3c936219
x.247: 3d048045
ONNXTRT_Broadcast_2895_output: 3b81a2b0
x.283: 3f06b090
input.1467: 3d455392
onnx::Gemm_4063_output: 3badfd4d
ONNXTRT_Broadcast_7624_output: 3c810204
onnx::Mul_1886: 3c010204
onnx::Add_3583_output: 39947eb7
onnx::Add_4708: 3cebd110
onnx::Add_4727: 3d355d11
onnx::MatMul_4993_output: 3ad5bad1
onnx::MatMul_5248_output: 3b1c3463
onnx::Add_4588: 3d363945
onnx::MatMul_5064_output: 3c00bd3d
x.587: 3c015a26
onnx::Shape_1393: 3d0bd7f2
onnx::MatMul_5077_output: 3ad839f6
input.1535: 3cec8077
attn.91: 3c010204
x.291: 3d1378b3
x.327: 3d14192d
ONNXTRT_Broadcast_7989_output: 3a9af74f
1401: 3d0bd7f2
onnx::Shape_1393_InputLayer_output: 3d0bd7f2
y.31: 3d0bd7f2
ONNXTRT_Broadcast_3205_output: 38d164b7
input.1251: 3d5c35f0
onnx::Mul_1598: 3c97995d
onnx::Mul_2653_output: 3b81b242
onnx::Add_3404_output: 391bf957
ONNXTRT_Broadcast_6951_output: 38dd5cab
onnx::Add_3507: 3c33803e
ONNXTRT_Broadcast_7297_output: 37435238
input.1315: 3bd27b32
onnx::Add_1543_output: 3bfc4649
padded_output: 3bd27b32
ONNXTRT_Broadcast_4403_output: 3ad1c6b3
input.779: 3e0841f7
onnx::Add_4112_output: 38d7baf1
ONNXTRT_Broadcast_2897_output: 3c810204
ONNXTRT_Broadcast_6945_output: 3ba56408
onnx::Add_4480: 3d3bf55c
onnx::MatMul_5228_output: 3accfa88
skip.95: 3c9eacfc
y.139: 401aab14
onnx::Add_4291: 3d0e5432
input.1375: 3d5e3b1a
onnx::Sqrt_4627: 3d010204
onnx::Add_1788: 406ca723
onnx::MatMul_5075_output: 3bbbe00b
ONNXTRT_Broadcast_6943_output: 3aeda232
ONNXTRT_Broadcast_7489_output: 38aa1073
ONNXTRT_Broadcast_4238_output: 3c810204
x.199: 3d0bd7f2
onnx::Mul_1421_output: 3b81f017
ONNXTRT_Broadcast_2597_output: 3b81f017
onnx::Mul_1422: 3c8be553
onnx::Mul_1423_output: 3c810204
ONNXTRT_Broadcast_2599_output: 3c810204
input.499: 3d0be553
Gemm_5183_output: 3ca4ea6e
onnx::Add_4475: 3cdfb016
skip.47: 3ca8d8a3
onnx::MatMul_4977_output: 3bfa69fe
ONNXTRT_Broadcast_2607_output: 3bfa69fe
onnx::Add_1430: 3d94bc25
onnx::Add_1431_output: 393ab9f2
ONNXTRT_Broadcast_2609_output: 393ab9f2
input.503: 3d95105d
input.507: 3d95105d
onnx::MatMul_4978_output: 3bcb563d
ONNXTRT_Broadcast_2611_output: 3bcb563d
onnx::Add_1436: 3d5085d5
onnx::Add_1437_output: 3916fbcc
ONNXTRT_Broadcast_2613_output: 3916fbcc
input.511: 3d50c9d5
onnx::MatMul_4979_output: 3ad9b3a7
ONNXTRT_Broadcast_2615_output: 3ad9b3a7
onnx::Add_1441: 3d5e0e8b
onnx::Add_1442_output: 393c1b20
ONNXTRT_Broadcast_2617_output: 393c1b20
input.515: 3d5ea850
x.607: 3d0c589b
input.847: 3ea29d48
input.947: 3e0c6d13
x.335: 3d16a07e
onnx::Add_4101: 3d3e4c73
ONNXTRT_Broadcast_3834_output: 3c001815
onnx::Add_2158: 3d051f57
ONNXTRT_Broadcast_3832_output: 3be7851a
onnx::Mul_1444: 3d5ea850
onnx::Sigmoid_1445: 3d4be7b9
onnx::Mul_1446: 3c0008ab
x.203: 3d499085
input.519: 3d72090d
ONNXTRT_Broadcast_4103_output: 38ba2bfc
onnx::MatMul_5153_output: 3bdf5404
onnx::Unsqueeze_1451: 3d01baea
onnx::MatMul_4980_output: 3bf8fa73
ONNXTRT_Broadcast_2640_output: 3bf8fa73
onnx::Add_1454: 3cdc541b
onnx::Add_1455_output: 3bfbbd9d
ONNXTRT_Broadcast_2642_output: 3bfbbd9d
x.207: 3d058422
onnx::Mul_4073: 3c9b20b9
skip.103: 3cb221fc
input.911: 3e06f5e9
onnx::MatMul_5244_output: 3b1ca581
dimension.51: 3c810204
input.879: 3ea4c182
dimension.39: 3c810204
onnx::Add_4238_output: 39c1a4e6
ONNXTRT_Broadcast_3360_output: 3adbde92
onnx::MatMul_5134_output: 3bf65728
onnx::Add_3771: 3d5b8b00
